/**
  ******************************************************************************
  * @file    room_state_fcn_data_params.c
  * @author  AST Embedded Analytics Research Platform
  * @date    Sun Jun  9 21:56:46 2024
  * @brief   AI Tool Automatic Code Generator for Embedded NN computing
  ******************************************************************************
  * Copyright (c) 2024 STMicroelectronics.
  * All rights reserved.
  *
  * This software is licensed under terms that can be found in the LICENSE file
  * in the root directory of this software component.
  * If no LICENSE file comes with this software, it is provided AS-IS.
  ******************************************************************************
  */

#include "room_state_fcn_data_params.h"


/**  Activations Section  ****************************************************/
ai_handle g_room_state_fcn_activations_table[1 + 2] = {
  AI_HANDLE_PTR(AI_MAGIC_MARKER),
  AI_HANDLE_PTR(NULL),
  AI_HANDLE_PTR(AI_MAGIC_MARKER),
};




/**  Weights Section  ********************************************************/
AI_ALIGNED(32)
const ai_u64 s_room_state_fcn_weights_array_u64[1673] = {
  0x3e833a9abea27165U, 0x3e368e6b3e475188U, 0xbe556f0d3eaffdf0U, 0x3e751057bec47f45U,
  0x3e0ef4d5beaf58d5U, 0x3cd39e333dd277deU, 0xbe2cbf9a3e3458a4U, 0xbe09fafebe61d262U,
  0xbea78dc8bea9d9c3U, 0xbe7099c6bec7c830U, 0x3e7f63103e115f29U, 0x3e853641bcf8b117U,
  0xbe9ed072bdd041d4U, 0x3eb59347bdda0269U, 0xbec832a03d3919e6U, 0xbd682f7b3d1c9aedU,
  0xbd0686af3ebd6e4fU, 0xbcf02e0bbea71116U, 0xbea57bea3ba53371U, 0x3dc5b8333d5624a5U,
  0x3c78de303dd2cf1eU, 0x3e7bfbbb3e01af40U, 0x3d8994773c9902cfU, 0xbd0627613e3d86e2U,
  0x3e9420b2be557859U, 0x3e867d75be0ca33bU, 0x3ec4c99fbcf3ccd5U, 0x3d044677be9d7b65U,
  0x3e838aadbe58dfb9U, 0x3dedc8f3bebaafacU, 0x3e79744abedd8cbdU, 0x3e63c49abd88066cU,
  0xbd9e5be0be934556U, 0xbe87100abb929980U, 0x3eabc7db3e85c041U, 0xbe77a8593e9c9bd8U,
  0x3e20eb84beb15018U, 0xbe9c3c4abec0925eU, 0x3dbf7b70bca831c0U, 0x3ceef08bbe642201U,
  0x3d466c30be55b90eU, 0xbdc0e6043cee91f0U, 0xbe65afcebecc7b12U, 0x3e3c9d653e96f49bU,
  0xbe860ac1bc1100c1U, 0x3e8550b03e413647U, 0xbe0a689e3c28042eU, 0x3db35a17bde9a05fU,
  0xbe63099c3e392aafU, 0xbeb938943ec665d8U, 0xbebf92e8be07ee86U, 0xbea048f9bebc984dU,
  0xbe9786533d8704f4U, 0xbe9c4c54be9fbd98U, 0xbeb64468be6c836dU, 0x3e523fa0be99285cU,
  0x3e8565e0be97c776U, 0x3e88ab9abeb796c0U, 0x3eaa88e2bdb5ab9cU, 0xbdd9915a3e46f1ebU,
  0xbe87f353bd8d001eU, 0x3d796a2dbdd1230eU, 0x3ea1a2c9be7a8f19U, 0x3e78b799be9673deU,
  0x3d72dcecbd7b2740U, 0xbd31cc69U, 0xbd47e76100000000U, 0xbc073a71bd4d7dccU,
  0xbd924bae35b7d301U, 0xbd7ff7ed3d048c9eU, 0x3a8eab553cdd8b2dU, 0xbd5775463d52d711U,
  0xbc13900400000000U, 0x3c4da0cc00000000U, 0xbd617da200000000U, 0xbd4a2c34bd1b91f4U,
  0xbcf129e0U, 0xbd9f8dde00000000U, 0x3be72d8cbcca05c9U, 0x3ca8e3f0bddb7b17U,
  0xbe0c18a9bb308753U, 0x3e008eac3e3b9c1bU, 0xbd12e8b8be561a6cU, 0xbd8d67263e078114U,
  0xbe146dec3e3e0d84U, 0x3e37d5b7be06300aU, 0x3a83fc00be364286U, 0xbaf360023e777a7cU,
  0x3e2b3d8f3b22b400U, 0xbe0cd398be567e94U, 0x3d9fba3dbe38532cU, 0x3e2711e3bda38c1dU,
  0xbe416e4cbd89a29dU, 0x3dc1df073d8115d0U, 0xbd9a357abd801818U, 0xbdf103003da74692U,
  0xbc2c68ab3dfdac38U, 0x3d3b3b10be8035cfU, 0x3c9326a53d58a210U, 0x3e2839b63d74aa41U,
  0x3e1bbfbdbe1f564cU, 0x3d2238b13da370c4U, 0x3e09d01cbde24a03U, 0x3dad04623e67f640U,
  0x3d20ff56be318940U, 0xbe344888bdfa8370U, 0x3c09aa1bbe225f20U, 0xbbf7557bbdd8ae9bU,
  0x3e79dbc4be1199f6U, 0x3e6af2243e1cc4e8U, 0xbe1f9164bac5d515U, 0x3da6df163e407504U,
  0x3e101c1d3cd04302U, 0xbe626c90be01d578U, 0xbe5fa96a3e023c44U, 0xbdb5fc023e26de16U,
  0x3e0faa353e185644U, 0x3dd08e1cba49af97U, 0xbda3be103db8fa93U, 0x3c776ccbbe88dd49U,
  0x3e7ba1d53e07fdacU, 0xb9dfbffebe3326fcU, 0xbe60c399bc819640U, 0x3e60d5903d71333aU,
  0xbca2f1c03e432d90U, 0xbdab8bc23e6e0234U, 0x3e57041ebde38d9eU, 0xbd6b28623d571794U,
  0xbdde24e33d4c8653U, 0xbdf7ee28be6f7f41U, 0x3e2769debc452040U, 0x3d4583c03c23a5a6U,
  0x3dd161833cc14740U, 0xbd52af3dbe564636U, 0x3d4e210d3ba56206U, 0xbe37ed1a3cb79faeU,
  0x3dcd3890bd9a10d8U, 0xbe3986de3d989e30U, 0xbe246511bcb24b20U, 0x3d7b330abd9cdb0dU,
  0x3e3dc6d43e344c70U, 0x3d19e8403db96cc8U, 0xbe2168d83e33b412U, 0x3e31460abe718348U,
  0xbe205038bdef8818U, 0xbd5432003de32d38U, 0x3e31ef9cbe5a9be0U, 0xbceb67803d044140U,
  0xbd93c118be1e8490U, 0x3db300c8be719768U, 0x3e02f004be0794fcU, 0xbe627528bd6a9f60U,
  0xbdd7bed83e160d38U, 0xbd5660e0bdc538d0U, 0x3c4641c0bd017130U, 0x3e0881743e04fb00U,
  0x3b37a3003e3f622cU, 0x3d9ef3b0bda496a0U, 0xbe122c903d8fece0U, 0x3e005454bcaea6e0U,
  0xbda8d65cbe3f1d2eU, 0x3e0b7180be5dd9b7U, 0xbde78c29bd5031e0U, 0xbdfdcf5cbd8e1154U,
  0x3d0ec75bbe742d34U, 0xbe36bf273e559760U, 0x3e1e0a9abbcec4c2U, 0x3de802063c6a77ceU,
  0xbda755ebbe6c03a8U, 0x3e2fa2863e239824U, 0x3daca2b4be4aa728U, 0x3dd034343e79bd08U,
  0xbe1e7620bea58045U, 0xbe0ac26b3d931588U, 0x3e172544bd662aacU, 0x3decd37c3e177d20U,
  0x3e728d8dbe094e20U, 0x3c0c0e803e18fed0U, 0xbe5a55c03e5b62e0U, 0x3e5f655e3dda0410U,
  0x3e2e5124be6b0824U, 0x3e879511be0ef8b5U, 0x3e72a7e4be57421dU, 0xbe246b5d3de24937U,
  0x3e6bd094bdb175d0U, 0x3e34c028bd1d3ee0U, 0x3e64daedbd598db0U, 0x3cbb48c73d6534d7U,
  0x3dce35103d12e4aeU, 0xbe0a0bed3dacfc90U, 0x3d482f303c8f590cU, 0x3e25dd493db7093fU,
  0xbdd637cfbe80e954U, 0xbd6b59d03d25e4f1U, 0x3e190a6dbe223500U, 0x3deed3553d5ea18dU,
  0xbc19ca74be4a677cU, 0x3e1bcf19be2a63e4U, 0xbdb8d6833e0cb247U, 0x3e1a3484be0c0d5eU,
  0xbdd89241bd7b3f10U, 0xbdf011c83e145048U, 0x3e695e3bbd2ee3e0U, 0xbcd7cb2dbbffdcfeU,
  0xbca726c0bacc23fcU, 0xbbe844b9bd9dae78U, 0x3e8166793d987805U, 0xbe562e1d3e4fcb2bU,
  0xbe3d5818bdaee340U, 0x3d806a60bd91ef18U, 0xbd4360303e7bae58U, 0xbd98d030bd7bd5f0U,
  0x3cd8c3203e1a4f14U, 0x3e75b2583d5d5bb0U, 0x3e536d1c3dee1910U, 0x3e708d143d0b27e0U,
  0x3dcbe3c03e1d9464U, 0x3df933403e4a4704U, 0xbe48ea74bd48b8f0U, 0x3e08d7b4be1839f4U,
  0xbe4f6920be3dfab0U, 0xbe7db010bce1c180U, 0x3c91ffa0be047350U, 0xbe6683c8bdbcfee8U,
  0xbd869c50bdfdbd65U, 0xbdc2b050bd16a3a8U, 0x3d135beb3e753e90U, 0xbc996b40be3875a5U,
  0xbd9c81b23e7b4598U, 0x3dc2c9ad3c5fd728U, 0xbdb74d0d3e41858dU, 0x3b529239be0fe92eU,
  0x3e7c82fabddefb18U, 0x3d66d5cbbd5a90c0U, 0xbd84787bbe088cc4U, 0xbe2a7d243df6faf0U,
  0x3e0d715cbd801049U, 0x3e56663c3dbaed18U, 0xbe167d83bdfabb12U, 0x3e42b1d7be074012U,
  0xbdcbec01bd3c4e28U, 0xbe4bdf08bc9ff4ecU, 0xbe1e828dbe432680U, 0x3e1c33a53e25ba2cU,
  0x3e26d8aebdf33b50U, 0xbdda72393c3c30c1U, 0xbd6854fcbe0e2f14U, 0x3e32a044be34f748U,
  0xbdebed763dd44ac8U, 0x3d124334be379960U, 0x3da7b7bebca952e0U, 0xbe02ad74bd5646ebU,
  0xbdb812483d571697U, 0x3e6fa47c3dd577c0U, 0x3d59d5053e3f3f4fU, 0x3db8c0ce3e056167U,
  0xbd05b8de3e08cbc3U, 0x3e31f6403e61b42aU, 0x3e12379e3b63ba00U, 0x3e028571be52a8f9U,
  0x3e50e6923e45d4b4U, 0xbe3d114dbd15150fU, 0x3cefe87e3de9514cU, 0xbbed6b90be247f68U,
  0x3e0248113e2eba6cU, 0x3ce26effbd5636f0U, 0xbd98d1363e485790U, 0xbd8b3c22be32cd63U,
  0x3dc2dbf83e0869efU, 0x3d0a472a3e3e2b54U, 0x3d8095943cc1371aU, 0xbd9849d5be5c52eeU,
  0x3e7800c4be4741b8U, 0xbdbbc320bdf91838U, 0x3e1480943df239a0U, 0xbdf1b248bbbf6000U,
  0xbe50ba503c96cd80U, 0xbe2c181cbe2a0fc8U, 0x3dff8340be5960f8U, 0xbdb08728bc3aa080U,
  0xbd2965903da230d8U, 0x3e623cc8be313b80U, 0xbe37b4b03c304ec0U, 0xbe7526a43d051f30U,
  0xbe21514c3e2c5784U, 0x3d26adc03e0d8b3cU, 0xbd13d340be2980e8U, 0xbdc5e9b83cac9300U,
  0x3d6439b13e6863eaU, 0x3dc8fba0be3f8549U, 0x3e30ade73e55b394U, 0x3e08c7e4be818f1fU,
  0xbe01e11a3e393c54U, 0xbdacc9d53e71debaU, 0x3e45c6b0bba015f5U, 0xbda096b6be4cb983U,
  0x3e37bb9d3e3287dcU, 0xbd3855bfbd795f10U, 0x3dc725eabe5fbbe4U, 0xbdd01471bd303e3dU,
  0xbe74b7403e6e89b6U, 0x3de17b2bbdcf2470U, 0x3dd6bcefbde586d4U, 0x3e7203183e397d27U,
  0xbdc09be1bccfdb71U, 0xbdf80768be09a3a7U, 0xbe1de2bbbe11dd8cU, 0x3bb7fe3ebdabfafaU,
  0xbe13e0f1bd7dc1b0U, 0x3e4346c0bdd9fea2U, 0xbe480bdb3ce5ab6eU, 0xbd39d755bb8549b6U,
  0x3c12b28bbe46d400U, 0x3d8fea3a3e190d70U, 0x3ce1887a3d7b7fb0U, 0xbe77c7103e4d5e4eU,
  0x3ddadae83dc7104dU, 0x3dd71a2a3e370128U, 0x3da6533f3e7d71f2U, 0x3e04f80f3e301ef7U,
  0x3e65b29a3d352eaeU, 0x3e5207003e14f230U, 0x3e6a3e243e212e4cU, 0xbe0f9cc43db8a7ebU,
  0xbd423e1cbd26c2a0U, 0x3d37878abe2a1d9bU, 0xbe666139be620231U, 0x3dfa76c43d1efcdcU,
  0x3ca3bfe6bd46e570U, 0x3e215bbe3db21840U, 0x3d39da6f3c6be100U, 0x3e6287723e2f6a85U,
  0x3e0426c8bd86af3dU, 0xbdc73c893e24c260U, 0xbcbcc974bde90c0bU, 0x3e5bc763bcbede39U,
  0x3e08720cbc16488aU, 0x3dcbf820bcf30802U, 0x3e194e9fbde55780U, 0x3e5a6e743e35166bU,
  0x3e139438bdb44008U, 0x3dafe702bda53bebU, 0xbd97f8243e0612c3U, 0xbe2fac083e7fdbdbU,
  0xbdb02d1cbd965308U, 0xbc494e5f3e490bf8U, 0x3cb778aa3d7a5140U, 0x3e1fbf343da509ceU,
  0x3e03a0e8bd269398U, 0x3e30c7213e59a3c8U, 0x3d2180673e1e9048U, 0x3e105ac23d035d85U,
  0x3de3fa283e02d6bdU, 0xbd0b80903e41ca45U, 0x3e665026bdef8cc0U, 0x3e2ca526bd83be6aU,
  0xbc36105a3e28cdf8U, 0x3e2279ebbe1590f8U, 0xbe2b3ecbbd832698U, 0x3d536380be763534U,
  0xbdb3b7f53e4d0fe0U, 0x3d406b14be22626cU, 0xbe3ee4b5bcc630a0U, 0xbe02373e3de28797U,
  0x3ddf8e403d0b9d30U, 0x3de9d57e3d7f1e10U, 0x3e726d61be03b15bU, 0xbe7201e13e3ecd8eU,
  0x3e160430be23f11cU, 0x3e19d3343e66e8eeU, 0xbe70e780bd930fe8U, 0xbdd11bc23e2c787fU,
  0x3e2c3cc4bae0bc00U, 0xbe80ffda3e30279dU, 0x3e02e8cabded5c61U, 0xbd882884be605ae0U,
  0x3e350c843dcbeab8U, 0xbdcdd3af3e70ead8U, 0x3d98e943be58d358U, 0x3e352724bd773dbdU,
  0xbd5e7a503e86034fU, 0xbda119ac3dfb2690U, 0x3e539776be4f81f2U, 0x3e1f90cbbd97c255U,
  0x3dc004dbbc96fc31U, 0xbe082f903dbd9b27U, 0xbe1f20c63dec7f88U, 0xbe09d9143c821da1U,
  0x3dcee0a0bd2ad050U, 0xbd1864953e49ea8dU, 0xbd1a05d73e4754f9U, 0x3e11264abbe1350bU,
  0xbd7c1e50bda802f8U, 0xbc542ebebd1d3c40U, 0xbe6e4d46be4ce1f0U, 0xbb951f3cbe481b3dU,
  0x3e79ee74be70a694U, 0x3e2676b53e76eea8U, 0x3e2dd210be4dbdeeU, 0x3dae74323e6efb2cU,
  0x3e5953b73daec413U, 0x3e65b20cbda7b34bU, 0xbd200ae33dfb25e8U, 0xbdf3b5f3bda19466U,
  0xbd8d53723e480a98U, 0x3e5dedb03d7eb3beU, 0x3e6876d4be48be9bU, 0x3b1c93b8bcef4340U,
  0xbc98a7e53e5eb760U, 0x3e035d50bd5118b0U, 0x3d2f8cf8be4390e0U, 0xbe8a8189be0c8ff4U,
  0xbbbae5003e921f6aU, 0x3dd6cbd0bc9a9540U, 0x3e321200be94f924U, 0xbca9de7f3e4eb010U,
  0xbd1f5100bd179810U, 0xbd99e430be6f6bacU, 0xbe0017b4be3b03fcU, 0xbda1f000bd0da600U,
  0x3e1028983e7d80b0U, 0x3a3644003d7451c0U, 0x3db171a0be4283fcU, 0xbe45751c3beb3980U,
  0x3e44f180be7b8210U, 0xbd9cc0883dfba428U, 0xbce335e0bdff7120U, 0xbe145210be5d71f0U,
  0xbdb04ca8bdfa8af8U, 0x3d976878be580d00U, 0x3d2434b03e791b10U, 0x3e63b6e8be28d4dcU,
  0xbdbe3d693e65ef05U, 0xbdee9d903e585f45U, 0x3df5e88cbdb92658U, 0x3c84cd88bc71ce35U,
  0xbcc9c6f53db8c218U, 0xbcf1d0f4bdd95052U, 0xbd57f9a2be07cb7dU, 0xbe05d6ac3ccf1f74U,
  0x3b2d2575be3e8580U, 0xbbbc886abdd78818U, 0xbd9e0dfebd8eb000U, 0x3e2fd4c13e6a1095U,
  0x3e27bf0cbd72d19aU, 0x3e6f1a65bcd94d80U, 0xbb1e4483be353808U, 0x3e48b15f3dbd0a5cU,
  0x3e7a6a223cfb6d3fU, 0xbd6e5ed03d55865eU, 0x3d229209bdc82ec8U, 0xbdd952adbda10dd1U,
  0x3d0653573e521a70U, 0xbe0c565e3db63c54U, 0xbdef530abc94bf36U, 0x3d937aa13e2d8227U,
  0x3e9548cd3c50e000U, 0x3df95026be4038e4U, 0xbe26a9813e78c28cU, 0x3db731123df7c3e2U,
  0xbe1ff8b4bd721940U, 0x3e4d1063be0629ccU, 0xbe178438be80b67aU, 0x3e6229a53d1f6385U,
  0xbdf04dc53dfcbe24U, 0x3d93c148be6e9c34U, 0xbde7091cbe01974cU, 0xbd6670c0be489bcaU,
  0x3e11def8bd891c08U, 0x3c8ab6173dd7bcdfU, 0xbd3ffe7c3e4ec57bU, 0xbe1505da3d7eeea1U,
  0xbe850830bcfc7e60U, 0x3cd79f34bdead0b8U, 0xbde3338dbca847e0U, 0xbe1b01583df8a0e1U,
  0x3e0ab0583d670254U, 0x3dab54183da1fe28U, 0xbdb2c8d8bd8fb2f8U, 0x3e4ecdc63e1d223eU,
  0xbe3ab7a23e2b52e8U, 0xbe7f45a83d909f94U, 0x3e4261bdbe03ffccU, 0xbe5f41443d4fce02U,
  0x3e66c2a63e6fb50cU, 0xbe447ef33c678985U, 0xbd07e12dbe5fae54U, 0xbd099c883d9a933dU,
  0xbe6555fb3d9d8f90U, 0xbe2f6c3fbe0cd188U, 0xbe148f123c739e00U, 0x3e200226be79513dU,
  0x3def44f83e317498U, 0x3e5424bdbe392db4U, 0x3d3dcccd3e777defU, 0xbdb05f783e0a4f8eU,
  0xbe248214be189ac6U, 0xbd50bf30be5dc5fbU, 0x3e2d57f73dd38948U, 0xbcfe1634bb16da51U,
  0xbe5a743a3c9328a0U, 0x3cb486db3d4705aaU, 0x3e385e1cbe75c0b1U, 0x3d776328be3df3dcU,
  0x3dcb600f3df920f0U, 0x3d0ad100be2caa2cU, 0xbd9704b8be768a2cU, 0xbe0e04b43e3d3e04U,
  0x3e06564cbe189013U, 0x3e25b648bdd08208U, 0x3db4d7d9be13c6a8U, 0xbdc92c623d7caae0U,
  0x3d76bec23d7645e1U, 0xbd1e17003e3781aeU, 0xbd9750793e22e6d4U, 0x3e339039bde0adc2U,
  0x3d0130a53e4a6590U, 0x3e27661dbb82cdd2U, 0x3d5be393be16e63cU, 0xbd6b9a75be70b03bU,
  0xbdb2b1c13e6c6300U, 0xbcdf2edf3d992178U, 0x3e6e2e853e715a28U, 0x3c7b80ab3dbf091aU,
  0x3e1b22803de31369U, 0x3d0041c73d9f2b48U, 0xbd8efd4ebdd1d6d1U, 0xbda678cf3e39ec86U,
  0x3db1b6ef3daeac61U, 0xbcd8ce00be44ef70U, 0x3e17bcdcbcecf080U, 0xbd459b773e305870U,
  0x3bd4c768be035638U, 0x3d80e6bfbe3fbdfaU, 0x3dfb988a3d39b777U, 0x3d1a2201be485e14U,
  0xbcbd7dabbdcab8e0U, 0xbdefafbe3e42dd2cU, 0xbdd3bc283db938f8U, 0xbd7cdb52bdab7c06U,
  0xbdfc5f803e444e19U, 0x3e397a6f3e556b3cU, 0x3d8f66f4bdb5a9c8U, 0x3c6609a0bda0452eU,
  0xbd698777bd414f5eU, 0x3e354bfc3e06f885U, 0x3e0fe4dd3cbad360U, 0x3e05ed203c9095c7U,
  0x3e60d38cbcecf820U, 0x3e218c2dbe507859U, 0xbd98ed10bd0de540U, 0xbe430d5ebdd2f68bU,
  0x3cbf82463e7b9404U, 0x3d83af2d3e78a768U, 0x3e3654c13e1410a8U, 0x3e3cb2b93e0ed273U,
  0x3e3ec2b4bdf4a4d5U, 0x3e012a38bd5dd380U, 0xbe0a28193e13e493U, 0x3dc4595abd63e34eU,
  0xbe3be3413d9ac13eU, 0x3db6cbc8be2cf0f4U, 0xbdd69cefbe60a940U, 0x3decfde03e6004f1U,
  0x3c0dcb933bd35080U, 0xbe875bb5be7d7ea2U, 0xbe0185053c2ba924U, 0x3d3cc12c3def7349U,
  0xbdd616f83a650000U, 0xbe68d318be40c648U, 0x3d69c388be053ee0U, 0x3e05a61ebdde7514U,
  0x3c109f00bcb03220U, 0x3e2922353e4c2c4cU, 0x3e40d6383e3c6548U, 0xbc7845153e5bf7f1U,
  0xbe77d0533d8e7778U, 0x3bb57000be51f480U, 0x3e6ddd733da19048U, 0xbd367ad03d7dac0eU,
  0x3ce9221f3d80e128U, 0x3e154b0abe871b68U, 0x3e65f8223e0b5936U, 0x3cf2daa43a2c16bcU,
  0x3d28c8e13e2bc510U, 0x3e1d91353e643b4cU, 0xbe6d39003deedb48U, 0x3e185ef33d8b879dU,
  0x3d9fb4f8bdb19d5dU, 0x3d949f043dedb3f8U, 0x3d840ed43e58e02fU, 0xbe5f96473db5318dU,
  0xbe1da0613d494d86U, 0x3e4bf45cbdc8df99U, 0xbddf3e5f3e78ecc8U, 0x3e5159f83e44ca90U,
  0x3d10f7693e09a964U, 0xbdc1e081bdc4a34dU, 0xbdc30ef83e6493bcU, 0xbd03b04dbd9e2fc8U,
  0xbe5fff243c7c4040U, 0x3d9984c03d81cca8U, 0xbe6fe952be71ceb4U, 0xbd6f162f3e28746bU,
  0xbdf093183d007c70U, 0x3e6205173d6bf720U, 0xbd775aafbe4cf25cU, 0xbe3574923e24f6e4U,
  0xbe4050583d6ce960U, 0xbe054cecbdd79ba0U, 0xbc390400be198b68U, 0x3d0a4880bd64e430U,
  0xbe6c7568bdc627d8U, 0xbbee9900be3a02f0U, 0xbd2d32f03da15348U, 0x3e399fc03e0552b0U,
  0xbe09e7d83dc8c508U, 0x3e2b87643e5310d4U, 0x3cbeca403d068f00U, 0xbe1dc3c4be244260U,
  0xbe136250bdc50e50U, 0xbe7ba7ec3e0398e8U, 0x3e373bfc3e5529ccU, 0x3d5025703d1f0e30U,
  0xbd8a1d6b3dd56471U, 0xbe20e4983ca023ccU, 0x3e2b966bbccfdec0U, 0xbdf8a917be018eb3U,
  0x3deed96cbdf13940U, 0xbcd6a912be0eebddU, 0x3e6cdbb6bae0759bU, 0xbcce6f913e7ae96cU,
  0x3c8081cc3db3dd90U, 0x3e246a0bbe0d32acU, 0x3d9142e2bdf297d0U, 0xbe18cafd3e167213U,
  0xbdcb81383e199415U, 0xbe0f9457be214270U, 0xbda0b5fc3e42dd49U, 0x3e2dd40fbcd7ca18U,
  0x3df12f653bd8fe5fU, 0xbdad55583e4e2791U, 0xbda821cbbca32800U, 0xbd93d149be3a0acbU,
  0xbe0f7d90bd5c9560U, 0x3e41a9513d872546U, 0x3d6c65d5be3eac61U, 0x3d477fa73e1bb707U,
  0xbd58ee73bb0ff200U, 0xbe591aff3d8dfad0U, 0xbd9a3ae2bceed380U, 0x3dc2c5513e6b8b17U,
  0x3cdd4c40bdc3d645U, 0xbdafceb2bb3cb300U, 0x3d8d4991bdd996e6U, 0x3e0d04af3d4e2190U,
  0x3cf772f53be2219aU, 0xbe0b5f4c3cc8d3f2U, 0xbdae88e7be5fe720U, 0xbd875370bc11537aU,
  0xbd51c48bbe003f4cU, 0x3e2fabd93bb34376U, 0x3e456710bd7420ddU, 0xbd96659dbe388b4cU,
  0x3c00b05ebdbdb5a0U, 0x3e7c6f6cbd917f30U, 0x3e50839b3d84d190U, 0x3e57c7e7be5a7485U,
  0xbe1661f03d7d3d14U, 0x3e2e97eebd92f2f8U, 0xbc25947cbe67fda1U, 0x3db7dd213e562a3dU,
  0xbe07592ebe10130eU, 0xbd0fa7e0be6c4850U, 0x3c6ff47abe351d78U, 0x3e0bb6183e1a65a8U,
  0xbc8496053e21503cU, 0xbe5bfa80bc90c211U, 0xbd4ad8363e1fc2efU, 0x3e0e1a543e199aeaU,
  0x3e3894003dd1bae0U, 0xbe066e8dbddf0b20U, 0xbd088e1fbd647950U, 0x3ddb955b3dfec679U,
  0x3dc53fa8bd63d2c2U, 0x3e4f9c09be24d3dcU, 0xbe5f51503e2df9dcU, 0x3e02de16be0e7cd4U,
  0x3dfd4948be1259c8U, 0x3e4709583da52028U, 0x3df24d98be5a2d00U, 0x3d9784c8bd009f30U,
  0x3e374554bdd5b1f8U, 0xbd4bc960bce683a0U, 0x3e59e98cbe7c1ca4U, 0xbc93a560bd948fa8U,
  0xbe7cb8303d5f9770U, 0x3e174cd43d8ee6d8U, 0xbe5f18703d3f9bb0U, 0xbe554aacbe7502acU,
  0x3e1746c03d930290U, 0xbd2a3be0bc6232c0U, 0xbdb489c8bda37268U, 0x3d53fe403e050fd4U,
  0xbded8b80be555ed8U, 0xbe5c8b083e165fb0U, 0x3e5964343de2e9f8U, 0x3e7fd06c3d9b7748U,
  0x3ab3f8003e6a664cU, 0xbe2473c8be3b9384U, 0xbe431af43ceea280U, 0xbe1ada1c3e315b44U,
  0x3de94490bc6f87c0U, 0xbe2c42a8bbcdb800U, 0x3e35dbe03e25419cU, 0x3e15b958be3cc010U,
  0xbdebb8a83df25f00U, 0xbe39cca43e5daf74U, 0x3cc4e280bd7cfaa0U, 0xbe58f7743dbbc200U,
  0xbe1199e3bddc6cfbU, 0xbe48af30bc6be471U, 0x3e0735fcbe3c18bcU, 0xbe2933e03e272346U,
  0x3e72c9d9bdd91810U, 0xbe02cdcbbe276c12U, 0x3e56be7a3df1e564U, 0x3e23474e3daab43cU,
  0x3bd42d423dcdf1b0U, 0xbde44de8be016c7cU, 0x3ddb1bb03dced960U, 0x3be8896bbdbf9c4fU,
  0xbe1cd914beb24881U, 0x3e5dd6f9bdc17b58U, 0xbcec3e4b3e162358U, 0x3cfaabd23a6a0d6dU,
  0xbe39ceba3e6327faU, 0xbe589fe03e0dd823U, 0xbe3bdd3c3e5d27ecU, 0x3d26ace33dc6aaf4U,
  0x3db43a103e23f9c4U, 0xbe2813c3be80841bU, 0x3e4a92663b820992U, 0x3e60228b3e545612U,
  0x3df0bf073d961500U, 0xbcc409f5be70a530U, 0x3d33f92cbd9e29d8U, 0x3ddc138f3d7259abU,
  0x3e2981ec3e7fe18bU, 0xbe22924fbde98458U, 0x3e212da63e37eca8U, 0xbe80b3b8bd485789U,
  0xbe5ae2e4bd83d2f0U, 0xbe69688c3e5bdb60U, 0x3cf90320bd623810U, 0x3e2b54a8bd708290U,
  0x3dc7f3c83c1dac80U, 0xbe6def38be4892f4U, 0x3d5fe8403c02ed40U, 0x3da1e858bd8afa98U,
  0x3e33288c3c633d80U, 0x3e6a5af0bda477d0U, 0x3d9179003de1e370U, 0xbdc5e5b0be5907b0U,
  0x3e38f838be6c0558U, 0xbd695170bca95b20U, 0x3da6e6383d97b6e0U, 0x3e3940303d875318U,
  0xbe33b8bdbe7090e8U, 0xbe25b9dcbe30fc31U, 0x3e18fbc63cd62c40U, 0x3e4fa786bda6abbdU,
  0xbd3487b5bd7a5e00U, 0xbe516ee43de78eb6U, 0x3dcca6dcbdda3bb7U, 0xbce5bd493d5b3222U,
  0x3db538023db4adb8U, 0x3e359f03be16c680U, 0x3e2c9ed83e09d6d4U, 0xbe217c563e047abdU,
  0x3e7a88983e5a09e5U, 0x3e4e4511bdd4d8e0U, 0x3e0677fdbe873ee5U, 0x3cf72e403dc6ecfcU,
  0xbadb172b3e41c291U, 0x3e5583003dd7838bU, 0xbe4252b6bd4b43b0U, 0xbbeba36fbe5df75bU,
  0x3d4993873de74458U, 0x3e5b68843e63da77U, 0xbd5d8637be0f525fU, 0x3dc158933e966dbeU,
  0x3e26894f3d980280U, 0xbd94cf3dbe475f6cU, 0xbce8e1c1be614be8U, 0x3e880ea5bdde28c8U,
  0x3e32aff43afaa8b5U, 0x3d54afa03de92d18U, 0x3e3d2850bcd0d939U, 0x3e1faadebcdde6b5U,
  0x3e5d7bac3e39ccdfU, 0x3e42d7f8be6b8d7fU, 0xbd5daaf0be704be0U, 0xbe2740f33def4414U,
  0xbd7898033e464810U, 0x3d99c1d2be01ee92U, 0xbd9b8af43e08a61fU, 0xbe87d497bd5477e1U,
  0x39671e55be14abd0U, 0xbe1b46743e665c68U, 0x3dd529e73e70ccd0U, 0x3d6dc3883d1d4fb3U,
  0xbe608990bdd11c05U, 0x3e1d12403e1527a0U, 0xbdb314643d5531cfU, 0x3dd16c6ebe6bdb83U,
  0xbdb1c4dcbe31fb7bU, 0xbdafe4b03e37a0efU, 0x3dacbb69be3af7fcU, 0xbb9d0ae33dc1e013U,
  0xbdcde14fbe32e480U, 0x3d4aa266be05db6cU, 0xbe21a0fb3dd7fe44U, 0xbe22ec19bde9b8d6U,
  0x3e47cc38bd322e70U, 0x3cc5bf133db557b8U, 0x3db81176bdafd788U, 0x3e1869ef3bb6da43U,
  0x3d34fae03e062878U, 0x3d11795cbc581e00U, 0x3e0401d33c9239caU, 0xbe34cb553dbfc61aU,
  0xbdc2b4ae3e0cd058U, 0x3e508058be5b9468U, 0x3d21e39dbe676e70U, 0xbd8baf21bdcbc8ebU,
  0xbe6876003df92348U, 0xbd951001be543181U, 0xbe70da9c3bbf850fU, 0xbe2dde9f3a8aee00U,
  0xbdc5ec923d595210U, 0x3e1c65103e43db90U, 0x3df5ecbf3e6c4338U, 0x3d54fe133e4bf4e1U,
  0xbc6a21803de532f1U, 0x3d82052abe460ce4U, 0xbe310c05be16dc37U, 0xbe6b1a783e78263cU,
  0x3dd9b1633e538d23U, 0x3dae65003e27cfc3U, 0xbd9feadcbe6dcb58U, 0x3e37bebfbd0e2d93U,
  0xbe08b5d0be2b9a98U, 0xbe651839be17a82cU, 0xbcdc83a43e572d21U, 0x3dbd621c3e7fac8cU,
  0x3dd6d6683e0759e0U, 0xbcada042be2efad4U, 0xbdc778353cded2a0U, 0x3e741bf23e366e25U,
  0xbd1040d03cfa770dU, 0x3e164312be07d684U, 0xbdd9ffd03e7888e3U, 0x3e36f888be61fa95U,
  0xbcb178203dbfb158U, 0xbe00f2bcbde746f8U, 0x3d744a503cdc2460U, 0x3e163cd8bce38340U,
  0x3d9a47103e3fd520U, 0x3ca6ed20be4ebf10U, 0xbe2d149cbdc5c3a0U, 0xbda53fc8bdf269a8U,
  0xbc1c1880bbf17300U, 0x3e5808ec3da3a4e0U, 0xbe145850be04f628U, 0x3c53e0803e219a24U,
  0xbd47daf03ce9f3c0U, 0x3e11c3e0bd18cfe0U, 0xbe1c8adc3c91bde0U, 0xbd60a820bde6bf68U,
  0x3db62ad8be2bbea0U, 0x3cb2dcc0be372f80U, 0x3ce44c80be5b523cU, 0xbe0dda843ce1f4c0U,
  0xbe148354bcb91c00U, 0x3e7d7bfcbe0368d8U, 0xbe35e0c83c412240U, 0xbdc0e6c83e1f4fb8U,
  0xbe6e6a1c3e0c28fcU, 0xbcf6e6003c175c00U, 0x3ddbd348bbb95800U, 0xbe627c383d986710U,
  0xbe61a3143e7e643cU, 0x3e754c3c3df94b00U, 0xbe348994be573e68U, 0xbdae2580be26f704U,
  0x3de7a288be72d9acU, 0x3dc4b5303ba61280U, 0xbdc51a30be47fb00U, 0x3e349c843d138a60U,
  0xbe5d6120be6e0c6cU, 0xbdc88d903da9fa00U, 0xbd301de03e29f034U, 0xbe791098be133798U,
  0x3e17da7cbdb78938U, 0xbd79ce403e1f8170U, 0xbe5487503e4d3194U, 0x3e68231cbe1e9d4cU,
  0xbe4342883e5f2dbcU, 0xbc9793803e191f8cU, 0xbd2fe5f0be394b28U, 0x3e1b77f8be104d74U,
  0xbc1222c03e182058U, 0x3e712e00bd8ee736U, 0xbe5342a2bd97b8a0U, 0xbdfaf6d0be0da0b6U,
  0xbe5adbcfbd915080U, 0xbe4884d03e54e15cU, 0x3e1d3dd03e32a52dU, 0x3c8f0507be02bb68U,
  0xbdf5981d3e3ea2acU, 0xbd831f203e051484U, 0x3e0164673e177314U, 0xbe76da46be09cc47U,
  0xbe0fbbd03e17cf8cU, 0x3e3523103dfd85a8U, 0xbe5cc790bd868b52U, 0xbe4702a03e36c3f8U,
  0x3e719c583c5e5543U, 0x3e5975643e7a2778U, 0xbe767c0c3e3aec7cU, 0xbcad14213e3bd1c8U,
  0xbd4deebe3ca948e0U, 0x3e10ab2e3e73dc1cU, 0x3ceb5ea33e3f5fa6U, 0xbda47a9c3e7ab4beU,
  0x3e824268bd9740e8U, 0xbe1849ac3d73cbd0U, 0x3db12d9c3a9e0c00U, 0xbe0925863d7e6c16U,
  0xbe2223443c13db9cU, 0x3e7b797f3e558bdcU, 0xbde1c574bdca9439U, 0x3e638f033e29c8abU,
  0x3d02cf523e012e81U, 0x3d9f5028bd0c7f8bU, 0xbe0f8f653afbec00U, 0xbdfe55d73e1df5f7U,
  0xbe79b7fc3da0a8b0U, 0x3e10daffbdf20a9dU, 0xbd7698253e40bedbU, 0x3da11430bd5654c3U,
  0x3d84464cbd440200U, 0xbe5d21523dc93350U, 0xbe0e3ac1be467894U, 0xbd81323f3de85f35U,
  0xbe58ff44be5c2f22U, 0xbe6f91173e069508U, 0xbe83c930be7a7c5aU, 0x3e232676be16c4a4U,
  0xbe02023bbcd9d2d8U, 0x3c1503403dab955eU, 0x3dcdc3a93e76100cU, 0xbe168037bda4912bU,
  0x3c72efab3df74518U, 0xbb702007be834c56U, 0x3e5909ecbe7d5a5dU, 0x3db268703d65ea30U,
  0x3e6d2906be5af8d8U, 0xbc9565603dfd5fc0U, 0xbd9c08833e4ab83cU, 0x3da6526a3e6aa120U,
  0x3e68a2f43cbc41baU, 0x3cabea5b3c483680U, 0x3ce82f8bbe3a2b36U, 0xbd325079bde1cc9cU,
  0xbe1ba3e03db60458U, 0x3e40f278bdf4cfe8U, 0x3d8210503d00ad40U, 0xbe28518c3e0495d4U,
  0x3e4430803d7bd820U, 0xbd868908be7dd3e0U, 0x3e4bcb34bd81ce78U, 0xbdfb13d8be431824U,
  0x3ca562603dcadd10U, 0x3dacbc70be790328U, 0xbd6dd2b0bd4a3c50U, 0xbde58708be68db68U,
  0x3d0335d03dd93508U, 0x3db89bb8be5e4b54U, 0xbe3f1f3cbc724ac0U, 0x3e39f1683e100c28U,
  0x3e6bf4b9bd940275U, 0x3e3d3e34be0e9600U, 0x3e72d9bcbdeddad8U, 0xbdd0e9583e08df6aU,
  0x3d173e5cbdfd8e98U, 0xbde85342be5630bbU, 0xbe0cf0773e3c6223U, 0x3e09271c3e1ffc22U,
  0xbe53797c3c9ec680U, 0x3da292f2bd54c000U, 0xbde9a117be0d6534U, 0x3da0ff31be5c553cU,
  0x3e26c8a4bdc99990U, 0xbdc31d3abdb11290U, 0xbe49ff90bdee2769U, 0xbc90e57b3d1b08dbU,
  0x3d51f9c0bcf7c320U, 0xbd144260bc1c6940U, 0x3d856020bd3132b0U, 0x3d287cf0be3adb34U,
  0x3de03078be52c49cU, 0xbca58160bd63d860U, 0xbdaa4fc0bdfeddc0U, 0xbe18dfd03e1a4838U,
  0x3e61f51c3cd7c4a0U, 0x3e0ca0f03da02d38U, 0xbe1349103e6489fcU, 0xbd8ba288be509a44U,
  0x3e39def4bdc9aab8U, 0xbe1f20f03cdffd60U, 0x3e7c26943e4fb724U, 0x3d7fd1803e16e5c0U,
  0x3e6efe4b3de8ee54U, 0xbe02b3ccbc8c072cU, 0x3e169daabe74b270U, 0x3e704918bd0dbbe6U,
  0xbe5a0939bcef4b40U, 0x3c7d58a6bd1bbd71U, 0xbe543552be7f2bbeU, 0xbe3826713e30341cU,
  0xbb352d00be2024ecU, 0xbd9a2410be1b2170U, 0x3cbc56d03d5d90c0U, 0xbe2420b8be4d0aadU,
  0x3e33fea0be6f564cU, 0x3d9fb576bd9d9608U, 0xbe2e7f403e284171U, 0x3d00ea253e368441U,
  0xbe4d541cbdf5b558U, 0x3dd5c5083df5d128U, 0xbd6b81003d6c9cd0U, 0x3d398fd0bde35540U,
  0xbdeb1ea8bdc28c00U, 0xbdef7f88be14bda8U, 0xbcdbd760be47ac54U, 0x3da3da50bdd50a10U,
  0xbe77e5e8be645040U, 0xbe4a82883dcfdd18U, 0xbdcc99303e76bad0U, 0xbcb04200be3255d8U,
  0xbe36b224be7be2ecU, 0x3dec3e48bd8929a0U, 0x3d817ef03d221ba0U, 0xbdb162f03d8d6940U,
  0xbe1f751a3e368197U, 0xbd278660bde0436aU, 0x3d365e3fbd4680d0U, 0x3e7fc676bda3dfebU,
  0xbe0de8b73d11ad10U, 0x3e51f8363d398f99U, 0x3dcd2e283cd78347U, 0x3e0c39f43d046673U,
  0x3e5e3551bcacfd00U, 0x3e6fb34fbbc3fc80U, 0xbe7bac9dbe0069a8U, 0x3b7402ca3dd8757eU,
  0xbdb866c8bc5fd237U, 0xbe7358863e6902a4U, 0x3e1b0c3abdb9906bU, 0x3debe1d83e56db9cU,
  0xbd006730bdbb7890U, 0x3bb48a003dfc6038U, 0x3d0481503e170538U, 0x3e6db92cbc97aca0U,
  0x3e251530be6ecc94U, 0x3dcfe940be517edcU, 0xbe1085b83e312c74U, 0xbd987b483c811800U,
  0xbc4327803e5d6994U, 0xbddbb6283d1a6f40U, 0x3d6c5bb03e5abefcU, 0x3e171048bd7f6ef0U,
  0x3d2f14f0be17f414U, 0x3d48f490bd2fb840U, 0xbe629144be49c014U, 0xbe6b1d783d80cd30U,
  0x3de09f503c8f3ca0U, 0xbdeace403ddda11dU, 0xbd25c2483d4b3620U, 0x3e30bc01bd114280U,
  0xbd4eabec3def9410U, 0x3c2b26acbd2edb6aU, 0xbc2bf880bdcab868U, 0x3e6a4610be7f1720U,
  0x3e56ec103de7bdd0U, 0xbcd26140bdac0980U, 0x3cf2c94f3df31e20U, 0xbe7b0f6fbe015eb1U,
  0x3e26736c3e74cda9U, 0xbdac28cf3de173f0U, 0x3da06f783dddd07cU, 0xbe1f844bbdaac9f5U,
  0xbd1a3417bca965e0U, 0xbc438468bca61b1aU, 0x3d0070c92bff4dd9U, 0xbd264cc53d856608U,
  0xbb7e525f00000000U, 0xbcd07958bd1abc68U, 0xbd3f25fb00000000U, 0xbd22b72abc84e229U,
  0xbd1ad286bd6b035cU, 0x3c8d8f93bd29a42bU, 0xbd45a14bU, 0x3cc61b4ebd266baaU,
  0x3c61d2f8bd2b4256U, 0x3c993176bb9aeed6U, 0x3c2bd68fbd58a035U, 0xbce647c13c0a4b01U,
  0xb7c50673U, 0x3bf202323d046f8cU, 0xbd371922bb7819a6U, 0x0U,
  0xbd27394f3cd40451U, 0xbd9364fa00000000U, 0xbb9e7dab3d72fbb6U, 0xbc92ec0dbc724a69U,
  0x3d028a3cU, 0x0U, 0x3cfd70c3b53996ebU, 0xbcb5cfecbb5f5845U,
  0x3cdaa9aa00000000U, 0xbc091d0500000000U, 0xbd0f5c8100000000U, 0xbc67d44e2649532aU,
  0xbe6c33c5bdf00556U, 0xbe42ac03bdba746aU, 0xbd974c4abe1759e1U, 0x3e2fe0703d5fe5dfU,
  0xbd2d6ad43e32f9aaU, 0x3dba8d803a1bc6e2U, 0xbe48e5393e54d026U, 0xbe8ead68be0ae231U,
  0xbe622e54be460049U, 0xbe17d6d8be207fd4U, 0xbd8943ca3c2157d3U, 0xbe0e6d08bd8e41daU,
  0x3e7ffa743dc57b16U, 0x3e4fca7ebe7d460eU, 0x3b6114b5bdcee1ccU, 0x3e21426a3e891fcaU,
  0x3d0c4060be86b746U, 0xbcdbfe723e751319U, 0xbe3601eabe44757aU, 0x3d94c8f8be45aa12U,
  0x3e3c56ce3d38c0c1U, 0xbe7eef523dfef7c0U, 0x3dd18f89be25ac9cU, 0x3e0d1076bcc57c02U,
  0x3bd454003db9e0d9U, 0xbd369d903e825200U, 0x3d33aeb8bdcbecc6U, 0xbca5edf0be8a3ed1U,
  0x3e8867703df872b4U, 0xbe3ca74dbe1d6a0aU, 0x3d976cd23e33ac52U, 0xbd946e5c3e756574U,
  0xbe7743333e233ee4U, 0x3e06ab1abe86f90cU, 0xbdb24bea3dff771cU, 0xbdee741b3d9bf98aU,
  0xbd7135b33e39d3a8U, 0x3dd96910bd3d660aU, 0xbe8eec5e3e41d30cU, 0xbe0d5f953e2191dcU,
  0xbe7764823e622c44U, 0x3e4166e53c8f721eU, 0xbe3ccbe6be74e2e3U, 0x3cba5c443d42cf18U,
  0xbe8153cfbd02cdbaU, 0x3d1c477cbc8dce04U, 0x3e3de596bdcfde22U, 0xbd7543e53cb3c365U,
  0x3ca83920bd8e66b6U, 0x3e2a73d6bc606c03U, 0x3c3aa00fbdd36b28U, 0xbe4b25673d978838U,
  0xbe011a2f3e5f8cbeU, 0xbdf57842bde8fc6cU, 0x3c2ac463be74f48bU, 0x3d30f2af3e028b7bU,
  0x3e5884963e148f60U, 0xbe2197eebda2c53aU, 0x3dc1c65b3e85a8f0U, 0xbe1970913d9541f5U,
  0xbd0d3d903e580a26U, 0x3e219b8d3e721844U, 0x3e7b7b123d196570U, 0x3e6535b33dcdb2bcU,
  0x3dc1ba213e047149U, 0xbe7affed3e3deba9U, 0xbd9a8fc73d37abc8U, 0x3e5bd92bbdb32e7aU,
  0x3e509b30be88ad04U, 0xbe5e81ca3e0b4581U, 0x3d147308bd695fdcU, 0x3e5082033e16bcbeU,
  0x3cfcc17f3d561d11U, 0xbda8f96bbd7b9208U, 0x3e571e0c3e6f9ff2U, 0x3e2c78713e656765U,
  0xbd50c36f3e5cb7faU, 0xbe843bca3df4d002U, 0x3d8719243d8c1187U, 0x3e0f217bbe4522c0U,
  0xbe78d72abe1e75aaU, 0xbdbeb1693d21e0c3U, 0x3e1726dbbdd31ee1U, 0xbe1605c73e797de8U,
  0x3e583e1d3e8b9b43U, 0x3e47fd7fbe3c8f7eU, 0xbdb74811bdc94aaaU, 0xbd2d505bbc9eae01U,
  0xbc9004e0be0de4b2U, 0xbd9e613c3e56ac12U, 0xbe83f17b3e8627c6U, 0xbdb4b1f93aeefcf7U,
  0x3dc68445be0585b0U, 0xbd63a3a93dca77d0U, 0x3e037c913e6477f4U, 0x3e4d0a6dbcb46050U,
  0x3e8705dbbdb25192U, 0xbcb339bdbe6c8427U, 0x3e725ce9be5df4f2U, 0xbe8200d7be758df0U,
  0x3e7faf083e6e3390U, 0xbd9b1b74be1bee80U, 0x3dcaa7dfbe1029f1U, 0xbe3eda2bbd9be833U,
  0xbd0972233e1bc208U, 0x3e3b440dbe66589dU, 0xbd917b5a3e8b841aU, 0x3e405af3be15f646U,
  0x3e55a7983e4cad24U, 0xbdf8ed143d8620a0U, 0x3cd29872bd57adf3U, 0xbe00783b3e24027eU,
  0xbe597c09be19c9f7U, 0x3e84bea13e41106bU, 0x3e7c2ad53e835895U, 0xbe04a84a3e579286U,
  0x3dcbda783d876243U, 0x3dea3132bd954412U, 0xbe53bf95bd936a94U, 0xbcbaac6dbe2b77e8U,
  0x3e13d0da3e245b55U, 0x3de59c14be1e5892U, 0xbdfe0f7abe469e98U, 0x3e1a70643daf022fU,
  0x3e5ea2a93e6433b6U, 0x3e7186823cdbb650U, 0x3b3024f9be7e7f65U, 0x3d9f4bb33a017000U,
  0x3c013588bd021b2bU, 0xbe76b76abd92e24dU, 0xbe52c0b3bdf5039eU, 0x3e04366bbe71488bU,
  0x3e8317ee3e369f9eU, 0xbe3970ca3e1ad581U, 0x3c7e136b3c816810U, 0xbd264d21be8f3677U,
  0xbda76262bc9571b6U, 0x3dfb7eac3e758dc6U, 0xbdcd49543d91f114U, 0xbd29a297be917b4fU,
  0x3e4bf3bebdb0e735U, 0xbdab514ebe8f1d96U, 0xbbceca2a3e792936U, 0xbe08d094bdf5ef68U,
  0xbe694b3ebc937150U, 0xbe2037a53c610d64U, 0xbe8862393d11258bU, 0xbe1ff6aa3e69deb0U,
  0x3dc4fa313e41506aU, 0x3e807d9dbd9975eaU, 0xbe88ec05bc980722U, 0x3e13bf2bbe348735U,
  0x3d935af4be6b29a5U, 0xbe2441ee3dd5d0a0U, 0x3e385e59be792b9eU, 0xbdf80b4ebe882f96U,
  0x3ce73b003d547778U, 0xbe2d29543d49b178U, 0x3e54436b3c91fe00U, 0x3e37a35e3e00ebd0U,
  0x3bdfa0bdbd98a8d4U, 0xbc8d7d0d3daa7c71U, 0x3e28baa43e0ed498U, 0xbd1958653e810ff3U,
  0xbe6a8e6fbe323b20U, 0x3d987d2d3cc9ba6dU, 0xbe60fe853df5f0e0U, 0xbcf50c003e2936d0U,
  0x3aa7549d3e37821cU, 0xba6e1bd83e32d05fU, 0xbd3da1d03d208808U, 0x3e44ea0ebe6a9755U,
  0xbd151be23e30ce51U, 0xbe910ca73d4bf00dU, 0xbe24f69dbe32ffb0U, 0xbce96eafbe15d313U,
  0x3e005102be60166dU, 0xbe34350ebe822e6bU, 0x3cf3cda2bd979e4dU, 0xbe742e84bcb3e9e0U,
  0xbe153533bde34747U, 0x3d4ccdacbe7f27d2U, 0xbe77b9633d3d0284U, 0xbdad7ac0bdeb2b72U,
  0xbd2c1a883e32bd0dU, 0xbe3b9363bbdb1540U, 0x3e53dfbc3d916320U, 0xbdf14f13bc660e9fU,
  0xbe27b4943cb424a0U, 0x3d8f4cd4be1a257eU, 0xbd207ebbbd765700U, 0x3c6f6e80bdb56f6cU,
  0xbcc1e844bd24d5f0U, 0xbe22e3d8be63e536U, 0x3cfd03e63dbde810U, 0x3e794aab3e278cb6U,
  0xbdb545cf3e388b02U, 0xbe480d47bd75652cU, 0x3dc7a9c5bdd2e66cU, 0x3e1bbf90be42e8e0U,
  0x3c8266da3d1f46fdU, 0x3e42318fbe31c3c6U, 0xbe6564fcbe204d3dU, 0xbcde34d73e3f3ca8U,
  0x3e915b8a3df9781aU, 0x3e0f4c183e6f86e1U, 0xbe395660bd95f227U, 0x3e37e265bd8a6b44U,
  0xbe2fccd8bcaa0c73U, 0x3d10dce0be7fa059U, 0x3d94224d3e2b7313U, 0xbe50ac27bdcc3890U,
  0xbe073eb3be1ae1dcU, 0xbc3cb7523d1927f8U, 0xbe02809ebc125d5cU, 0xbe17cadfbd552fd4U,
  0xbe02d8973e461841U, 0x3e580efa3da4412cU, 0x3e66cf7b3e278330U, 0x3e3fbf963d922089U,
  0x3e4f4161be137410U, 0xbd4e6471be16881aU, 0x3d8d7058bdb472c0U, 0x3dcad15cbe68eeccU,
  0xbe393c783dc3532fU, 0xbe40c8863e34910aU, 0x3e818920be2bfc40U, 0xbdac20543e861b07U,
  0xbe44519b3e442e54U, 0xbe1b26e3be3f4b35U, 0xbe83ed393e2df11cU, 0xbd1d34503db9c0fdU,
  0x3ca76a6f3de33846U, 0xbe4141babccffe78U, 0xbe7ff12d3e277b01U, 0x3d18547bbe58a7b3U,
  0xbe070ece3e78357aU, 0xbd23073a3dbae79aU, 0xbe0b547d3d874fc3U, 0x3d6e9024be6ee4aaU,
  0x3e337894bdf29660U, 0x3d343fdf3e875a69U, 0x3e0ba3f13e2e1cb2U, 0xbd151aa83dcdccb8U,
  0x3e8bceb23e0c98f4U, 0x3e8c41ee3e6eb654U, 0x3e144a7c3e732d92U, 0xbe1ea4cabb7c91a1U,
  0x3d451730be8bda62U, 0xbc6a0440bd8be378U, 0x3e15c7f6bc6a6aa0U, 0xbe572146be16ff17U,
  0x3e09422fbe556d01U, 0xbe6f185cbd909aeeU, 0xbe8785f2be3d3ed0U, 0xbe9733b23cfdad40U,
  0x3da898ef3e0d149fU, 0x3dcd96c33e7ac313U, 0x3d3b08663e157ec4U, 0x3dcfb2b63d9bc240U,
  0x3e3093653e869d80U, 0x3e26e33d3e32ce16U, 0x3e6c2c663e6d646cU, 0x3de60067be86eadeU,
  0x3e1963b33cb4e3c4U, 0xbe1f4ac83dcb7388U, 0x3de22a6c3e805726U, 0xbe007e783e5179ffU,
  0x3df2e8a03e3437f9U, 0xbe55140cbd2039e4U, 0xbd5bd8ab3e3538acU, 0x3e127725be645a09U,
  0xbe7cc0adbd351859U, 0xbe76d1f8be5def3fU, 0x3e423c673dbc82a3U, 0x3e487e02be1ccefbU,
  0x3e733745be79e7edU, 0x3db3ea5ebcf3cb58U, 0x3daf34413e03840fU, 0xbc216596be27ccd0U,
  0x3d280950be2647ffU, 0x3a5d50003b9bf540U, 0x3dc36aef3e756ea0U, 0xbdfa95c6bddddf5dU,
  0xbe9acda13d8a9688U, 0x3e5148fdbe67130cU, 0x3d278bf93e0b7b38U, 0xbbe4c6683e6cbaf0U,
  0x3ba2a01abd8f67baU, 0xbe6aa7453d9360b0U, 0xbe5e701fbe482b48U, 0x3e34e71dbe8b7616U,
  0xbd86fc663e5a7646U, 0x3e1aa7d1be05f4b6U, 0x3db33327be58a250U, 0x3d29527e3c310a68U,
  0xbe67d2cbbdc44410U, 0xbe41e0f23e522262U, 0x3e0d37e63e7c8920U, 0x3dc80c88be21f173U,
  0x3e076b6ebe4aef1aU, 0x3bb75f453e730b33U, 0xbe6beff2bcdb5814U, 0x3d9b3b09bdece75eU,
  0x3dd547dc3e570dfeU, 0x3e6a88773e29371dU, 0xbd4a7b20bc09c55dU, 0x3e4b0dc0be857eb2U,
  0xbbd517febccfb513U, 0x3dcdb967bceec9b0U, 0x3b844d12be25128bU, 0x3e7a7598bce46a95U,
  0x3e323162bcf3e61fU, 0xbe3e6ce63e15ba58U, 0xbe1c7a093c2cc720U, 0x3e6d3ee8bdaae9d6U,
  0x3e7cab4cb9ef8800U, 0x3e212692be77ee48U, 0x3e35078fbe576564U, 0x3e69c4a2be438bceU,
  0x3e4b3798bde2c820U, 0xbe4a6b18be1a8626U, 0x3e174a18bcc4eb48U, 0xbdb8d8643df0e114U,
  0xbdbfd7aebd4b8aa0U, 0x3e0842b8bd6a9e60U, 0x3e0f3672bdb9efc4U, 0x3d684ce8be246b5eU,
  0x3cdbd790bd4c952cU, 0x3e2ff5dabe5058d4U, 0xbe84ff7fbe0bc589U, 0x3e0fd314bdb046a0U,
  0x3d67f318bdb41044U, 0xbe037338bc1a1360U, 0xbe58f8573e47dc9eU, 0xbe50e462bdd38b0aU,
  0x3e24b73a3d5912e8U, 0xbe546561bda181aaU, 0xbe64846bbdb74ec8U, 0x3e25f84cbe1d145aU,
  0xbd0ed5d4be2ba442U, 0xbe7b2ab63e17d980U, 0x3ca74c30be863659U, 0x3de18f7c3d68eba0U,
  0x3e1494f0be3e0839U, 0xbe1889403e7d3084U, 0x3dd430743e36a6b8U, 0xbe52842cbe0663f2U,
  0x3e28d398bd9d0d68U, 0xbd0746b83d98ede0U, 0x3db9d81cbe15abeaU, 0x3e1ddc38be33fe88U,
  0xbe0d5437be4bff75U, 0xbe2a648dbe15dddaU, 0xbe18c9ec3e7d69c4U, 0xbe8cfc813c814de9U,
  0xbe15705f3d3389a8U, 0xbdb7596ebe16892cU, 0xbd745fae3dda0aecU, 0x3e614ea9bd4e1a1aU,
  0xbcd642283e0487ddU, 0xbd875dba3e12e6d4U, 0x3e1f61503e4fcf28U, 0xbe016e16bd608b31U,
  0x3e5b28f83d6a685aU, 0xbe5b2362be3628c9U, 0x3e1507d33d81895cU, 0xbd16c085bde0b45cU,
  0xbe3c78403e72cf3fU, 0x3e5894243d9dac2cU, 0xbdf22e1b3e95e54fU, 0xbe7d3f193e125de0U,
  0xbe87e9543e68363dU, 0xbdf66644bcc70f28U, 0xbbbd6d62be815e1dU, 0x3cd94e963e1831c3U,
  0x3e5cd4ac3e1c455cU, 0xbe3ee7063d84fb40U, 0x3d66841fbdac4a14U, 0x3e67908cbd9f8593U,
  0xbe87b3f33e3a9558U, 0xbd908d3abe882695U, 0x3e6b8a603e0b0594U, 0xbcd2a7fbbe687795U,
  0xbda4aa7fbcfa41a7U, 0xbbc31d593e5896adU, 0x3e818478bdfd3760U, 0xbe4589b1be185568U,
  0x3e614a0dbe46bb2eU, 0x3e1de3aebd898d11U, 0x3de947163e0045e8U, 0x3c049c433cafb635U,
  0x3d950fc2bd02aee0U, 0x3e3d16983e2826deU, 0x3e1f3d623e144e0fU, 0x3d3a45343e1e437fU,
  0x3e1c4130bdaf6130U, 0xbe820fc0be0896c8U, 0x3de1cb5c3e2b3d72U, 0xbcb3314f3d3d0f66U,
  0xbde9bffebd800284U, 0xbde9384b3e4a5e4bU, 0x3e2863763e43b1e1U, 0x3e0efffa3de21a3cU,
  0xbd672fe13d6d00f4U, 0xbc9d43383e872016U, 0x3e0539763c75e150U, 0xbd8ee2fbbe416af5U,
  0xbdc0dd64bd703b9cU, 0x3e89619a3e72e7e4U, 0xbdf6f939be2ed78cU, 0x3d288495bc9f7e59U,
  0x3e875ebfbe6fa292U, 0x3c5dd98dbe5b5bb8U, 0x3db19ee9be0f7fe0U, 0xbe16c3593e3cedcaU,
  0x3d1c7f32be4b39c6U, 0x3d1fca503e5b8190U, 0xbe2e78713e7df664U, 0xbd52c1023c845dc0U,
  0x3c154c603cf9b3c0U, 0x3dbc04743e38e4baU, 0xbe7c91d13e239360U, 0xbdd936853e8a65cdU,
  0xbe53b33f3c985d3cU, 0x3d2754483d91e890U, 0x3e15b9d4bdba96d5U, 0xbd0be9263e1e309cU,
  0x3de28df0be7b3e77U, 0x3e443100bddb5d0eU, 0xbdc16fddbdc04d60U, 0xbd1435043e1a1976U,
  0xbe41006ebe46dd42U, 0xbd954ffe3e72e90dU, 0x3d1361313af91400U, 0x3de4e1f4bbceaac0U,
  0xbe10cafcbe759679U, 0xbdd05007be377ab0U, 0xbe8af8b4bd32361bU, 0xbe033437be88e7e7U,
  0xbdc20a28be418ccdU, 0x3e081172bdc07f2eU, 0x3e3978e3be1b2b5cU, 0x3e54e16cbe5a5f0cU,
  0xbd0d2f983e4d1e18U, 0x3e51f8e03e07b4e6U, 0x3e3df5dbbcdc3bf8U, 0xbe7190d13d7ede18U,
  0xbccf1249bddb4430U, 0x3d2eb2503e475986U, 0xbd28fdc13e78b7d8U, 0xbe70935f3e3fffa2U,
  0xbc123820be609a3dU, 0x3d683e30bdbf0dcaU, 0xbe803e02be051e34U, 0x3e552ecc3d76dc21U,
  0x3cf64ce0bdd65bb7U, 0xbe382b473d0e2648U, 0x3e22bd523d84caa4U, 0x3e23fa36bd85043aU,
  0x3d69e64dbe493957U, 0x3d1d7c183e666cf8U, 0xbe7bcdbdbe6d450eU, 0x3cd4520dbba803feU,
  0xbe7699ecbe070dc1U, 0xbda3b6663e440e68U, 0x3e53e7ca3e2c1a64U, 0xbd52007cbe2698baU,
  0xbdf5d920bd3c662bU, 0xbdb253dabcd294a0U, 0xbe08d29c3e6e4de4U, 0xbe409e8a3cc5aae0U,
  0x3d886b103e5e4d73U, 0x3e019f583dacb054U, 0xbde63934bce899a8U, 0x3e3195b23cdab4e0U,
  0x3d0769f1be015203U, 0x3e03d2fcbe01de0fU, 0xbe3d8bb03d01e3e8U, 0xbdec13803e6773f2U,
  0xbe58ca2bbe4e9c64U, 0x3be5104f3e113c01U, 0x3d96eedf3dbf3f84U, 0x3d51dd8f3e0948d3U,
  0xbe148bf43e82511cU, 0xbe3c5a4bbddb612aU, 0x3c5e97983e8b5860U, 0xbe6bd58fbe1d3523U,
  0x3cafb32b3d9c0a30U, 0x3e90219abe0648c5U, 0x3de2fb18be042a2dU, 0x3d5c5c8ebe53726eU,
  0x3e8378ca3e816238U, 0xbe79fd8e3bdde94cU, 0x3e10abf6bcf9be79U, 0x3e69143fbd73d987U,
  0x3e53bd0abddcfa82U, 0xbe6e90d63da421d4U, 0xbe4db448bd1d8809U, 0x3df7795c3de6c4a4U,
  0x3ca596ca3e7933abU, 0x3e4301c83e80d710U, 0xbe057da03c6c74baU, 0xbe7a591f3e22ba9aU,
  0x3d50fbf83b5b2ec2U, 0xbe8b598abdeee1f2U, 0x3e3196fe3e8325eeU, 0xbe8d5697bdc1d9b1U,
  0xbdc961b03db5945cU, 0x3e0220ff3e081914U, 0x3e80bfa2bd29d89cU, 0xbe83a4f5be8b8844U,
  0xbd4c97aebcc33e7eU, 0x3d190b9cbd1be3fcU, 0x3d040764bc8e1377U, 0x3d0b81893d105689U,
  0xbbb61010bd19e7f3U, 0xbd0ae00b00000000U, 0xb84298723d0ed328U, 0x3d15d95c334b6b44U,
  0x3eee35333e5c9e39U, 0x3e6dd8ddbeedc91dU, 0x3e912354bc5f56b8U, 0x3dd596013d84742dU,
  0xbe37c042be8cda0aU, 0x3e9228503e491348U, 0x3c0d718b3e945272U, 0x3ebe7edfbef13975U,
  0x3efc7992bda5f152U, 0x3e2dad093e6e5de3U, 0x3d051a193e30a55fU, 0xbe07d900be68d8a3U,
  0x3e4db6243e9b7ee4U, 0x3ee80eb6bf0fbdc3U, 0x3f004085bf0b931fU, 0xbddd9f06be735007U,
  0xbd1b05283d1b0522U,
};


ai_handle g_room_state_fcn_weights_table[1 + 2] = {
  AI_HANDLE_PTR(AI_MAGIC_MARKER),
  AI_HANDLE_PTR(s_room_state_fcn_weights_array_u64),
  AI_HANDLE_PTR(AI_MAGIC_MARKER),
};

