/**
  ******************************************************************************
  * @file    room_temp_rnn_data_params.c
  * @author  AST Embedded Analytics Research Platform
  * @date    Sun Jun  9 21:56:41 2024
  * @brief   AI Tool Automatic Code Generator for Embedded NN computing
  ******************************************************************************
  * Copyright (c) 2024 STMicroelectronics.
  * All rights reserved.
  *
  * This software is licensed under terms that can be found in the LICENSE file
  * in the root directory of this software component.
  * If no LICENSE file comes with this software, it is provided AS-IS.
  ******************************************************************************
  */

#include "room_temp_rnn_data_params.h"


/**  Activations Section  ****************************************************/
ai_handle g_room_temp_rnn_activations_table[1 + 2] = {
  AI_HANDLE_PTR(AI_MAGIC_MARKER),
  AI_HANDLE_PTR(NULL),
  AI_HANDLE_PTR(AI_MAGIC_MARKER),
};




/**  Weights Section  ********************************************************/
AI_ALIGNED(32)
const ai_u64 s_room_temp_rnn_weights_array_u64[7561] = {
  0x3d8d8cfdffffffffU, 0x3d7c4604bc68454cU, 0x3e8167c1bd7c536aU, 0x3ca759ff3e0ece73U,
  0x3d86001b3dc20394U, 0x3dfb994a3d5175e1U, 0x3e13679d3d5f68b1U, 0x3cf2c045bcbb0416U,
  0xbce4bd4abcc7ff31U, 0x3cd936cc3c96c7ceU, 0xbb32d6da3da015d2U, 0x3e7c82b53e334040U,
  0x3cada364bd48fa2cU, 0x3cc6e96eba634590U, 0x3e22f923bd25eb8bU, 0xbcdef841bd6840b1U,
  0xbca0cabc3e274130U, 0x3e8dc7953e6336b3U, 0x3dfac4ff3db0a04bU, 0x3dc02a4a3dc307d8U,
  0xbe92312b3dac87a2U, 0x3e56c0ae3c7c3e16U, 0x3ccb41c5bd8503e3U, 0xbd0348173da9ae54U,
  0x3cafdf0dbd6a1eabU, 0x3d1a4281be38fdefU, 0x3d79d2e93d78eadfU, 0xbd7fefda3d580c25U,
  0xbc7a38f03e7c708bU, 0x3df20a01bd3031a5U, 0x3d7254c8bd14c530U, 0xbdb82b9bbd185683U,
  0x3e5750003d447cdeU, 0xbd3f90e33df393c2U, 0x3c845778bd036489U, 0x3daa8177bd8ae9a3U,
  0x3e16bbcebd73fef0U, 0xbd4492c13c8c8a52U, 0xbd0f0fec3cc9f94dU, 0x3cc311313e0f5150U,
  0x3e6ebf2b3e3e72e1U, 0x3de5cb983dc963a7U, 0x3e1a3ab6bd42ac87U, 0x3d9f77963d059976U,
  0x3e507d4d3e1800b7U, 0x3e03eb29bc3027c7U, 0xbd37915c3e288d36U, 0x3e119bdd3e5d948eU,
  0xbd5831d3bd35572aU, 0x3e4a0992bd4ec634U, 0xbe1c3906bd6502cbU, 0x3e07fb3abcacf148U,
  0xbd25feb53d85d0d0U, 0x3da3d3dcbd7762abU, 0xbca332c8bc2875ecU, 0x3d843d94bc34f657U,
  0xbcfa02393e708271U, 0x3db529d9bcb08bdaU, 0xbc9de575bc100280U, 0x3c55a0fdbd79b6e3U,
  0xbc593d7d3c94e74bU, 0x3b7d39503da3d765U, 0xbe66c0b53c7582f2U, 0x3e1d5c613e3aa643U,
  0x3e67715aba8815cdU, 0x3dddbe5f3cf1b1b2U, 0x3dbda249bc945f07U, 0x3e219f43bc3fa487U,
  0xbcf12dca3c17417eU, 0x3caf534dbc56db6fU, 0x3e0300a8bd0c5b6aU, 0x3c53e43e3e56dd0fU,
  0x3e1a47a93df706c8U, 0x3e475a473d543b98U, 0x3e34811fbe28ec26U, 0x3d7454a93bd8d379U,
  0xbe3a3685be6bfba4U, 0x3e4b3296be5efc0bU, 0x3d5b3f10be3e0303U, 0x3e458b0b3e2335e3U,
  0xbdb0c6973ae669ffU, 0x3e47dc98be0f4b25U, 0x3e1d5ae63e44f412U, 0x3bacb62ebe390a91U,
  0xbe26d56bbe1e123bU, 0xbcfefd65be10a9c0U, 0x3bd756303e1d5777U, 0x3afe90933de03e5aU,
  0x3e334aa3bdb0207aU, 0x3bfa36c3be211511U, 0x3d17b02dbdfd945cU, 0x3db6ceec3d3c2c1cU,
  0x3dd210ad3e07ade1U, 0x3dba21b53e1f5394U, 0x3e0178b6bcf4cfdfU, 0xbca274923da89210U,
  0x3e245c983cbae90fU, 0x3e1305f23e622dfeU, 0xbc4076923caa985dU, 0xbbeaf409bbda3c5bU,
  0x3c8d756a3d530cabU, 0x3deb5f413e2d4960U, 0xbb3f2fa53d641de7U, 0x3dacf43d3dea9202U,
  0x3c51b1d63e3c2985U, 0xbbcdcb1e3e8630d0U, 0x3e9e3e933dcf4d56U, 0x3df2369cbc87e3a3U,
  0x3e77fcccbcde5447U, 0x3e8f870a3e081cd5U, 0xbe6c513fbab4d049U, 0x3d2797e13e08a17aU,
  0x3d5566713eaf74bcU, 0x3e2cb19fbcab2aa6U, 0x3e88d4f83d9da5ceU, 0x3d81d5babdfac1e2U,
  0x3e3d0a6d3ddee799U, 0x3e5723bc3eaebc61U, 0x3ea33f50bc8c7cd0U, 0x3e03cfec3dda2ca3U,
  0xbd22f1d43ea5b3efU, 0xbd2b4f013d95b043U, 0x3cf748873c6c0309U, 0x3d0a909e3cc764ebU,
  0x3d90aa133e16425aU, 0xbd84c3903d539ca9U, 0x3c27f776bd1f0b2fU, 0x3d3282853e1c3806U,
  0xbd62544c3c5e4e19U, 0x3d983c333d850673U, 0x3c981e093d168da7U, 0x3d9b32793d6f28cbU,
  0xbda56e6bbd70c05bU, 0xbdd2b2a53dd1c254U, 0xbc211f403c177044U, 0xbc5c09bc3cbc2c76U,
  0xbb89d1f7bd98f909U, 0xbd7a0aa2bc0878a2U, 0x3dd2a98cbd85b10eU, 0x3c133ff73dd78668U,
  0xbd1414623ce08960U, 0x3c149fcf3d2dcb44U, 0x3cd14a033db2fe14U, 0xbd17b575bce12678U,
  0xbdd2d8cbbe0e10beU, 0xbcae1e40bbfa56a4U, 0x3dea76f83d926a26U, 0xbd1362fbbcfdb57aU,
  0x3d4906cd3d4fcb82U, 0x3d07a161bcbe8722U, 0xbd9b6a8abd8a9a94U, 0x3d332d6b3d6ae32aU,
  0xbd0799c23e1de708U, 0x3e1124f93db64eafU, 0xbe12acee3b8f881eU, 0x3cbcf4833d3e805eU,
  0xbcfafa5fbdde94a5U, 0x3e022960bd81374fU, 0x3e1f3f573e19270eU, 0x3e192b7cbd69821eU,
  0x3dad8b2bbdf9fd68U, 0x3d151f813d318ea7U, 0xbcc247da3c8d9be7U, 0x3d510ef43cdd1fbbU,
  0x3dfd38adbdd1e481U, 0x3e17ff7d3e0692fbU, 0xbe1c630abe0eecdeU, 0xbd4957fdbde3e97fU,
  0x3da235ef3c457a99U, 0x3e0566393dd647b1U, 0xbdd4c3993d890a04U, 0x3e0d28a5bdb9e099U,
  0x3d3862363ddd202fU, 0x3df23090be0aacc5U, 0xbe1b7200be018c05U, 0x3c399c9abdc855b0U,
  0xbb90e44e3e0a8f2fU, 0x3da427583d059665U, 0x3dbf7b92bd2d3e7dU, 0x3d096d5abe551150U,
  0xbda2e9acbdd1f65fU, 0xbd88d9543d742148U, 0x3d5c76f3bd024429U, 0xbdaa709c3d3e363dU,
  0x3d7c69703c996dd2U, 0xbafc6265bc97e397U, 0xbdda1aa9bd948fefU, 0x3da911cbbd206d38U,
  0x3e36e1e23d069f63U, 0x3e31b800bda924a8U, 0x3cd76557be3ee6e3U, 0x3cccbff5bba11a3eU,
  0x3d657b2db9cbacfcU, 0x3d331c75bc5c060bU, 0x3d18d80bbc7c26a0U, 0x3cff4d0ebbe32942U,
  0xbd7963b33e0102e4U, 0xbcb1cb73bd76a474U, 0x3b08d197bd582df4U, 0x3d5267013ddb4521U,
  0xbcf22c643d02077cU, 0xbd88f547bd7c83aaU, 0xbda4e53a3dc8c2e4U, 0xbd36801abd9e4cadU,
  0x3d9a0678bdaeb1fcU, 0xbd8ec8ea3d57048cU, 0x3de7a0d4bc4879eeU, 0x3daea1273dfeb14eU,
  0x3d5e20b83b520fdfU, 0xbe0e17cfbd102d9aU, 0xbde32c4cbde1184cU, 0xbe687b6c3dabc459U,
  0xbdc42f13bd88e013U, 0x3cb9757ebda31d89U, 0xbd64afa0bdbe4d40U, 0x3dd7a45bbd88d19dU,
  0x3d68d75d3cf49ec3U, 0x3d75917ebe4729ebU, 0x3decd7433de5c040U, 0x3e4c06aebe0786a0U,
  0x3e20a61cbdcca4c5U, 0x3e274cdb3cbf355bU, 0x3e0f12993e284816U, 0x3d3cdd003d959b04U,
  0x3daf06023c601a0fU, 0x3dc2d30bbe2660f1U, 0xbdc142a53ca543e1U, 0x3cce68d0be3388b2U,
  0xbc54aedabe07f56bU, 0xbd9bedffbcdc3962U, 0x3dcdf9333e23ab7dU, 0x3dcb8aef3c17323dU,
  0x3ba847353dad4f06U, 0xbcae39d2bddd5a32U, 0x3e22f2d7bd939b72U, 0xbe862fec3c74dfadU,
  0x3d4fc2e6bc9a2984U, 0xbdae4ea6bb949855U, 0x3d836c35bc6e8aceU, 0xbd8a5e3bbcb5df10U,
  0xbd1617e4bd8a069bU, 0xbd882ab8bae20ec3U, 0x39e89316bd1c3a5eU, 0x3d86bfaa3d06852fU,
  0x3e25b0903c8225ccU, 0x3d9e7a163da392aeU, 0x3e14f4743d80b7edU, 0x3c610a7e3c358ae8U,
  0xbc938f32bca164f5U, 0x3e7737a93c2bf91dU, 0x3d2dc5ccbd0d5eacU, 0x3e1f421b3c16fc67U,
  0x3d69ba443ccb4788U, 0xbdfff0043de5a368U, 0x3e41dc49be130815U, 0x3d249daabe2667fcU,
  0xbe29610e3cb2e2ffU, 0x3daf9b803c01efd6U, 0xbd1cc83e3dd05e1fU, 0x3d2d044b3dcf5e6fU,
  0xbe13937fbd13b65dU, 0x3b87df9abc0257fdU, 0x3dd713993d0606c1U, 0x3be271cfbddf366fU,
  0xbe0592d3bb95bcc7U, 0xbe2ffad8bdf8e379U, 0xbd88dc043c911554U, 0xbcb41e303e163f7bU,
  0x3e49b1433d8fcecfU, 0xbe454a753ce1a230U, 0xbdd0cca3bdfeefc4U, 0xbd1da2a83dd3012dU,
  0xbda51ade3d100e65U, 0x3df009783ce19911U, 0x3d81bc0abd8c29e4U, 0xbcfcaefabdab5e6cU,
  0x3e0144133cf0ed6eU, 0x3da47b2dbdf23602U, 0x3ceafee93dfe2739U, 0x3dab4b88bd9bf57bU,
  0x3e11c1f9bcf77c78U, 0x3d0c629e3df0640bU, 0x3c88ec8d3dd134c7U, 0x3cb782c73d36ea39U,
  0x3de25a84be4dd75cU, 0x3e3396b4bc839a1eU, 0xbdeaba0cbcae5301U, 0x3e2956d0bd188bd7U,
  0x3de52952bd8dbe46U, 0xbbcbbe343cbbae0bU, 0xbe8dc1cc3dcde0c4U, 0x3d886919be41845eU,
  0x3e084d763cb1bde1U, 0xbd2f1c11be11414cU, 0xbddc6b73be19d0e8U, 0xbda36edabd8ec85fU,
  0x3d5739053e2c5beeU, 0xbe0d1f563d53cbe9U, 0x3d91103f3deffa53U, 0x3d80dfa8bdd5e2f2U,
  0x3d82e3e2bdcaaa83U, 0x3d461b773da382d3U, 0xbde09f54bd1b3f07U, 0x3ddf52ac3d36d0ecU,
  0x3d31fdd1bd33c7fbU, 0xbac53a39be102dc9U, 0x3d3272823e13da7eU, 0xbd7f9a033db1ad5fU,
  0xbdd30f983d03eb37U, 0x3da02ee1bd9c1b76U, 0x3e49f6533bd99927U, 0xbc9dea10bd90b6acU,
  0x3df218733d86bc31U, 0x3c14740e3d81ad0dU, 0x3dcf7d4abdd77eb9U, 0x3d9824643d5143dcU,
  0xbd408324bc39b09dU, 0x3dd82b7cbd24bf16U, 0x3d96a096bcd687fcU, 0x3b9d9f313db80786U,
  0x3cc6d29a3df2c15fU, 0x3e069342bdabb188U, 0x3cb28f943db54053U, 0x3dbdcc4e3bb6391dU,
  0xbe288230bd09a66cU, 0x3c599e73bd7c2687U, 0xbda24fa23dfea692U, 0x3cabaeef3d2b39fbU,
  0x3cafb4fb3c728404U, 0x3c4b4ef5be0207a6U, 0xbda5d2d5bd768051U, 0x3b8a66c93c5373f5U,
  0x3df447f53d136770U, 0xbc782328bda8629aU, 0x3c24f6cc3da2cd0fU, 0x3ce118f7bdb08e73U,
  0xbd8be95d3bcf42a3U, 0xbcd9d16b3d415c83U, 0x3cf29406bd2652caU, 0x3d6fe767bcefdd9bU,
  0x3d77869abcde08f3U, 0x3e1b7a873d886832U, 0xbc2748663c649d90U, 0x3c77c13cbe090110U,
  0xbcde9291bcf9e5d0U, 0x3dcf3eddbe11f149U, 0x3e1adc963c85c0d4U, 0xbd387eaebd52c99eU,
  0x3dd20a4d3d8b316dU, 0x3d98a5dc3c219d05U, 0x3e1d813b3de28053U, 0xbc90b6523cf6c81eU,
  0xbde138353c1e276eU, 0xbbfbda5abd890867U, 0x3dc8be573d259798U, 0xbdc07ce8bc895c0cU,
  0x3d3227a7be05a746U, 0xbdfb5f6bbe05e769U, 0xbd19849c3df2fc9dU, 0x3d018ae93d54c132U,
  0xbd8089ebbc8b82b2U, 0xbd9a626b3e13c0ceU, 0xbd98d7973da336ceU, 0x3e42de5c3d3c39efU,
  0x3dbf91f6be329e01U, 0x3e2077403ad2a3fbU, 0x3dc0c9fa3d5d2c8cU, 0x3e2c306ebcbd5769U,
  0x3e2c77833e002ab5U, 0x3e2bf061bdd6955aU, 0x3da96b5fbba636a6U, 0xbd82c59abc925edbU,
  0x3de93aff3e38b39cU, 0x3d36e3843d883447U, 0x3d696c54bce0f6f1U, 0x3e912131bcc26379U,
  0xbe2df041bd39d8cdU, 0xbd0df913be4ee1c4U, 0x3d0a2a34be88ad62U, 0x3d3868363daf8adaU,
  0xbe5cb2e63d7825b4U, 0x3d1addb73ccb5266U, 0x3e6aea543e249e96U, 0x3dfcee65be914973U,
  0xbe607647be523ffcU, 0xbe11c8fabb597297U, 0x3c0397d63c5f91f7U, 0xbd6949ad3ddafc3fU,
  0x3df9dcd53ce52dc7U, 0xbd9f0d76bd9b8619U, 0xbd82e0f5bd9bdfb7U, 0xbd6332a73d79bba4U,
  0xbc2ac9edbd905cf0U, 0xbd5f1d34bd1ef1eaU, 0xbd67765cbd94c484U, 0x3d9f4df3bd830bf6U,
  0xbd822c9ebc551762U, 0xbd9e4b4ebd654a1dU, 0x3e4358eb3c2927aeU, 0x3da2f871bdf6ebc5U,
  0x3db2c3bbbdc9049dU, 0x36a2d6fdbc7a213aU, 0xbceb7c293dd18705U, 0xbe2b24763e3a209fU,
  0x3dcfe7fabca39ec0U, 0x3c7492f3bd101526U, 0xbdf77e6e3d26982cU, 0xbcc357cfbe179207U,
  0xbd403afbbc669762U, 0xbe06faedbbe7db0fU, 0xbdc906f13e06b4e2U, 0x3d465f033d5371eeU,
  0x3a0265cbbb683980U, 0xbd8e8632bd8a7aa6U, 0xbca578b6bb75780aU, 0xbddf6a63bdb84a53U,
  0x3df131dd3d9974bfU, 0xbda485973de48c7aU, 0xbdc8fdef3d81c626U, 0xbe0ba4073cb5178bU,
  0x3df52884bd1e0464U, 0x3e048bea3c91ce1fU, 0xbe4cd8c73dac8416U, 0xbd9d40f13e21fc7bU,
  0x3d6d82aa3e009e52U, 0x3d3d47d6bd077198U, 0x3c369cf83cbe7552U, 0x3cd3a4523dccad47U,
  0xbd831506be47e507U, 0x3c8fbc483dd44a87U, 0x3d84967d3d6a5093U, 0xbdb77e1f3e03b387U,
  0x3e553382bcf6c7d9U, 0x3e5c0516bdca5109U, 0x3d998424bc5458b0U, 0xbdd2f39c3cae4909U,
  0xbd1d9c30bdec34e9U, 0x3db5d6abbdc780b7U, 0x3da61e283d617013U, 0x3db97625bc44a298U,
  0xbccd7354bdd4396cU, 0x3de612aabd847b15U, 0xbc121e8d3db9842fU, 0x3dc73b3a3e07b4c4U,
  0xbd07764a39888122U, 0x3d61de3fbcb89ef0U, 0xbb096c183e826eafU, 0xba30448e3db77698U,
  0x3d6154b53d1eeda2U, 0x3ca1641dbd6a4d96U, 0xbd17eed9bdbc8c9bU, 0xbe0a58e6bd45c816U,
  0x3dc6c9fabdfc521fU, 0xbca4b3fbbb94a2cfU, 0xbe303fae3d6a0904U, 0xbd44cde3be32c2d7U,
  0xbd7305443d8252e2U, 0xbdd919c3bb171b43U, 0x3dbed46e3dfa12e2U, 0x3e5bf31fbe1f2b1cU,
  0xbdb5f815bc74891bU, 0x3d673ddf3c9500a0U, 0xbd1db718bcf27e49U, 0xbd7b1c0dbdca451aU,
  0xbdb644123a567bf8U, 0xbdc3bed03d1e44c6U, 0xbd6d8cc13cb9109dU, 0xbe07c42e3d8369c0U,
  0xbd09138abd09345dU, 0xbda26f533c32e2d3U, 0x3cc71c0a3db44a25U, 0xbdc105833da0b20fU,
  0xbcca9ebcbd89dbe2U, 0xbc348fc33cb8eb7aU, 0x3a25b8eabd2c6ca5U, 0xbe0924983d712b55U,
  0x3d4c5959be01a317U, 0x3d76ab0f3db96098U, 0xbd9637cc3e57cc4fU, 0xbd6844ac3e38a245U,
  0xbdda2da3baf143ceU, 0xbd80d9ca3e6604ddU, 0xbe6284fbbc0dcb44U, 0x3d3bfb7b39691dc6U,
  0x3bd9a737bd4c5092U, 0x3da513a93d68a0c6U, 0x3bb5a2ec3d97531eU, 0x3e8986e93cf40497U,
  0x3db995803e0ecca1U, 0x3e1d5cdbbc8f7619U, 0x3debc2fcbdbb1376U, 0x3d4410783d274936U,
  0x3e3350393e7d08d1U, 0x3e25d9863e39f5dbU, 0x3c70a7dcbdd1e8c3U, 0x3e2e3dc4bd4d1b78U,
  0xbde8de0ebd9b556bU, 0xbbb86697bdec7578U, 0x3d198906be04e327U, 0x3cdee89f3e186cf3U,
  0xbe3040073ca6ba26U, 0xbcb83a0abd880d1fU, 0x3dd07d3f3ddfb00aU, 0x3d07f316be3b7f59U,
  0xbdc53a77bcae8a34U, 0xbd5db0e2bdede120U, 0x3cbdb98f3d6fadd3U, 0xbe02e1a03de06b55U,
  0x3e4f2e693e2af1ddU, 0xbd0c3e4fbd712deaU, 0xbe355428bc9b0255U, 0x3ddd258c3da1b990U,
  0xbe1c6ef5bd2f6dd0U, 0xbd1179353e098598U, 0x3d2b388bbe125478U, 0xbcf5bd643db4e2b4U,
  0xbc3904c13dd4abe6U, 0xbcf1ea67bd8dcb87U, 0x3e31c9aa3dfb4c2aU, 0x3e12436cbdcdb57dU,
  0x3b265818bd4f49dcU, 0x3cce88abbd5351f1U, 0x3d3c36d4bd2abc76U, 0x3da987ad3ca64a09U,
  0x3ddae04dbbf4c37fU, 0x3e8c4a4d3cfdffdfU, 0xbe73fbf2bd0a757fU, 0x3d83562ebe16a3b8U,
  0x3c7a6f6ebdde38feU, 0x3d37d3983d3f8918U, 0xbc8d5b063da635dcU, 0xbce32cee3d0b9affU,
  0xbdc61d033dbcf254U, 0x3d13030fbdea422fU, 0xbd844dc1bd9bb593U, 0xbcec0781bca6acccU,
  0x3d5b0beabd821136U, 0xbccb69923c01d4b8U, 0x3d61ba0c3d522a18U, 0xbe1812dcbdd89307U,
  0xbdb00018bdd2ea00U, 0x3e4e1cc13db4649eU, 0xbdb57b3fbc7bcc9bU, 0x3d06ff56bc4b0f0aU,
  0x3df32b58bdb6633eU, 0xbd64a9cebcb5c30dU, 0x3d8b63e73bf406acU, 0x3d8da65a3d861552U,
  0xbd0a57e3bdbe7387U, 0x3df8c17fbd193d60U, 0x3da37b803d99bf18U, 0xbd366fef3e144392U,
  0x3dd13d973de706c8U, 0x3d0783a83e414261U, 0x3e003eddbc6a87bfU, 0xbd24585cbd91531cU,
  0xbd2b15c8be020d1eU, 0x3b79d250bd58163dU, 0xbda23a5fbca9db8dU, 0x3db2272a3c61e897U,
  0xbdcac577bdb171a0U, 0x3d9616d8bdfdbccaU, 0x3e1ee5ff3dcd5c29U, 0x3d990fccbd20b5a6U,
  0xbde6d79dbdd2041fU, 0xbd07d5773c282c78U, 0x3d75fc43bbeca3bcU, 0xbbd5c0f63e1335cfU,
  0x3c9f6b093d2391d6U, 0xbd150f8abd932463U, 0xbcdd098fbe1f1fd6U, 0xbdfa95423d8f364bU,
  0x3cb13699bca19700U, 0x3d30b16b3c5ed948U, 0x3decbfe6bde05921U, 0x3c9daf0dbd244daeU,
  0x3e4ac7763d492a5aU, 0x3d46b5b3be184862U, 0xbc7526703e197bf6U, 0x3e0a3a38bcbb5c66U,
  0x3d8c8b95bdc2f717U, 0x3dd99289bc0fb16cU, 0x3dc4cb9e3e49a9a3U, 0xbe1014df3e14aa3aU,
  0x3e0227e73d9d2539U, 0x3df87b743c5b02eeU, 0xbd700ac9bd498244U, 0x3da5d2b4bcf56c76U,
  0x3daa34f1bd3d1e2bU, 0x3d2bdb7d3c9a90b7U, 0x3dd4399d3d2e1db2U, 0x3cfb9b8ebca81d33U,
  0x3e27d6b93bb563eaU, 0x3da8c78fbd4cc3dfU, 0x3c741041bdd022d1U, 0xbe290e17bd4d50cdU,
  0x3d97225d3c7a72d6U, 0x3d13b16b3d9d8b2bU, 0xbced19f3bd62d5f8U, 0xbcb4461fbdd18917U,
  0xbe099ebbbdf21aaeU, 0xbc62aa633db24abfU, 0xbe12a1c83ce20bb3U, 0x3e011118bd021b12U,
  0x3e085d2e3d323a60U, 0x3d8b13a9be11fc35U, 0x3b71a2ca3b1b3049U, 0x3e1d4103be340712U,
  0x3db84c7d3d19882aU, 0x3e381aa0bde5b47cU, 0x3d4359c7be650128U, 0x3d4daee03de0fd73U,
  0xbc81c7963db181a0U, 0x3dbe3f28bca5f6aeU, 0x3de102f4bd0265e2U, 0x3dbd5f20bd1f839bU,
  0x3b367f213c611b94U, 0xbc49e52cbe1bc2e5U, 0x3bffeb853ccb46a9U, 0xbd3395093d91d43bU,
  0xbca0fc443d489f00U, 0x3e1b8f7cbe0c4d82U, 0xbd768d14bcce7945U, 0xbdce2f9ebd9be2efU,
  0xbe4601babdf5a783U, 0xbe21f096bbcee281U, 0x3bf88a253dcef6abU, 0xbe00d4d33d01a386U,
  0x3c82c4643dbf798eU, 0xbda3866ebd6fe911U, 0xbe34b9013d2fa69cU, 0xbd3884943d4236d6U,
  0xbac2f749bcfaec8cU, 0x3dc681f43cb69544U, 0xbdb8226a3c544ca7U, 0x3d0f3ddb3d966c4cU,
  0xbbcaf1e5bd5e0214U, 0x3dd41baa3c8b856aU, 0x3e3953fdbba0f40dU, 0x3dd465c0be3070a8U,
  0xbd1ecab6bc55bc79U, 0x3e08b2613d222041U, 0xbca474f23cb8c80cU, 0xba7f48e33d3aab86U,
  0xbb8363443cea56f9U, 0xbb80161d3d0b4063U, 0x3d849e563d171624U, 0xbd1e748b3d604f45U,
  0x3e585c943c1d99e8U, 0xbe0265a0bd5413e4U, 0xbd0b1a29bcd9fb39U, 0x3c0086433d6a8fbfU,
  0x3dbf0196bd4bafccU, 0x3d4053afbd44109eU, 0x3d6c6df1bdaebd9eU, 0x3c467f5b3d39a551U,
  0x3d6b35b63c8464fbU, 0xbdaf3d28bd7d48f2U, 0xbc9b9a973dc70cbaU, 0xbc3388633da38c68U,
  0xbdd4fc793ddcb928U, 0x3cf2d61e3d162595U, 0x3d03f6373db25651U, 0x3dd026033cd65aa2U,
  0x3cd7e6bb3de8d88eU, 0x3df5ddcb3c95e5ecU, 0xbc59ddf6bd4764daU, 0x3cc251fabcf65d22U,
  0xbd8c015bbdf09ad3U, 0x3d4e29eebd9d4d02U, 0xbc91223c3c690144U, 0xbca3ca8cbd3de23dU,
  0x3d7920363e32dd71U, 0xbc3a185f3dcc83fdU, 0xbc8f87dcbd02e1a7U, 0x3e01f7913da5e1dbU,
  0x3dbef693bd90abfeU, 0xbd257045bd2c52d5U, 0xbd21f3d9bdd87102U, 0xbda427523dbd8ca2U,
  0xbe189195bc66d422U, 0xbd139c37bd8a6c9bU, 0x3e1f7fb3bd675812U, 0x3db8107e3c62036bU,
  0xbd687d24bd85f942U, 0xbe415994bd6b2fa7U, 0x3db0b6863deaf77fU, 0x3cab9c423d6b2a93U,
  0x3ca72f153e00b04fU, 0x3d80c1ef3d8e4772U, 0xbb8b7bf8bd097e65U, 0x3ac6fd413de3ac23U,
  0x3cfa7a893e4d5b01U, 0xbcadfca83d9d4599U, 0xbdaa12debca21d64U, 0xba0b87413d022074U,
  0xbe1b19aebd9b302fU, 0xbdd403713b268871U, 0xba32eac2bd3124cfU, 0x3dcf8d32bddda989U,
  0xbc95f4413df86832U, 0x3bfd336e3d365dfcU, 0xbb7734aabd099a9dU, 0xbd640de8bc53a161U,
  0xbca84afcbcae2a33U, 0x3d1d88e73dcf3922U, 0x3cb8c761bd8a299eU, 0xbc5342673dd2cacbU,
  0xbadcb0933b515d68U, 0xbbc06e9abe2165abU, 0xbde82cd83c9dd51eU, 0xbcce58da3d52c58fU,
  0x3c8cd1debe231464U, 0x3d44a2453c4026e1U, 0x3bef0401bd1bcb52U, 0xbc0db62cbd010eb6U,
  0xbda66390bda78d9dU, 0x3d4886a73baa9a69U, 0xbdf7acfdbe835244U, 0xbd17b9b43d4483a3U,
  0xbe34569b3c2a3d05U, 0x3d9244723e84c809U, 0xbcaeee9b3c81dd06U, 0xbd6f98a1bd19c21dU,
  0x3ce65ad8be227e67U, 0x3def43e03c7de07cU, 0xbc0c143e3d859e3eU, 0xbdbcef80bdc94403U,
  0x3e2a3c913e5a8f4aU, 0x3e985390bee69adcU, 0x3da64df0be1b73e7U, 0x3d17828c3d7abffcU,
  0x3d8e547e3e7e7e9eU, 0xbb30fbca3e1cd061U, 0x3e07da49bd2e52b8U, 0x3ea595acbdbd7503U,
  0xbd5fad29bddc475bU, 0xbcad1ad9be6c3b4eU, 0x3cc86998be1ed07aU, 0x3e0e550a3defdbcfU,
  0xbe4de3d53df15685U, 0x3db9f6cebc22aa8cU, 0x3d58add63e210239U, 0x3c76142abea5f2e4U,
  0xbddd63ebbe52ad38U, 0xba11be91bd71a67eU, 0xbcfabc5b3d9e25acU, 0x3d7fb1cdbd2fb8f3U,
  0x3e2028b53e1c3f7bU, 0xb98d599ebe0c8740U, 0x3d5d58d3bde210d7U, 0xbe2e40683e47c69eU,
  0xbdbd65adbdba4139U, 0x3e262ce6bd348d70U, 0x3df99e15bdd5972cU, 0x3dcd36d7bd776c04U,
  0xbc99ed843d9c3a00U, 0x3d90d24bbdc02c40U, 0x3e2f2ba63d7d5b13U, 0x3da1261ebe3399b8U,
  0x3e25244fbdf1bcd2U, 0x3bbcc4fc3d979d61U, 0x3e1d50583da4d459U, 0x3da4232e3e2104e5U,
  0x3db58d9bbdb3f735U, 0x3e629990bd52176eU, 0xbdb5d48dbe1f4c5dU, 0xbc6b8aa0be270df9U,
  0x3d491242be2ef8ebU, 0xbe1e6e4a3e01d458U, 0xbe5206883d277d4cU, 0x3d59ab50bdd605f0U,
  0x3e0d63463d79c24cU, 0xbd82b44fbe3c09ebU, 0x3c7cb39dbda57807U, 0xbe15810dbe2eb1c2U,
  0xbd4ed93e3cea4d8aU, 0x3c1bca53bc947b68U, 0x3d2937223de96126U, 0xbcf2fa50be1cb167U,
  0x3e4b6584bddf50edU, 0x3e2e065fbe3f62e3U, 0x3d2d3d823daeb673U, 0xbd55692bbe0ae6c8U,
  0xbcf3cd983e885c1aU, 0xbe6e2c413e2a0bc3U, 0xbc8c240ebe2bd992U, 0xbdc9b8523e004ca8U,
  0xbe36108bbe3cf1c1U, 0xbe893af73e92805eU, 0xbd92505d3e2c5e29U, 0xbe1cfa44be260cc9U,
  0xbd8e8060bdcec1b3U, 0xbe5f26febe5155e6U, 0xbdb780563cc1e28eU, 0xbd71ab563e2ad405U,
  0x3d42a724bcaa5c30U, 0xbe06fad53e711c69U, 0xbe0b2caf3e207774U, 0xbdeb6deebd6000d5U,
  0x3e070aaebe2d1b91U, 0xbd36a00c3e09f612U, 0xbdac48f2bdb864ffU, 0x3e2857cc3ea4630aU,
  0x3e1d6e203e050ef8U, 0xbcc43a343deb18beU, 0xbe434d14bd4e7d84U, 0x3e06367dbe05e79eU,
  0xbe125811be11240bU, 0x3e1d86163d8bc806U, 0xbdea21eabbb34175U, 0xbc72e01b3e51597eU,
  0x3c46123b3e2a3f47U, 0x3cc611ba3c959f91U, 0x3e1d7b00bd96604cU, 0x3e25614e3e7ab9cfU,
  0x3dd7c952bd3dc192U, 0x3dde3237bc837d59U, 0x3d50e93a3e974f8bU, 0x3e04277fbe0180daU,
  0x3d417576be3c7d48U, 0x3db47dae3d40ba84U, 0x3e1be52e3e192a02U, 0x3d946ef93e042584U,
  0x3dacc636bdf30862U, 0x3da768c03df2c388U, 0xbdaf9c10bdd7d729U, 0x3da4966fbe0bb94dU,
  0x3dca3f1ebcd86353U, 0x3dc5c8b53d73eeb1U, 0xbe48542b3e03711aU, 0x3e3e2477bdb6073fU,
  0x3d5dbe8e3e0c0599U, 0x3d62bc8fbd8968d7U, 0xbdc6b261bdfd54d8U, 0xbcd449dbbda7eb31U,
  0x3d241eb93c64d622U, 0xbc815b913e05f581U, 0x3d0a7e793c8c0339U, 0x3c7b9d9e3cfb1e2cU,
  0xbe5772d3bd9839f1U, 0xbdf55cea3e88900bU, 0x3c55c313bd674177U, 0x3e430723bd753188U,
  0x3d3bd997bd5f8ffcU, 0x3e24f9a33e1ae0a6U, 0x3d5bb621bde00d88U, 0x3e0255dabda8d963U,
  0x3d8460593df4caecU, 0x3e95486cbe65bb04U, 0x3e1fc372bad3939cU, 0x3d66674e3d180011U,
  0x3deaec423e3a9e44U, 0x3d9135c93e9a2bc7U, 0x3d8b32293dbda202U, 0x3eab983fbd90b58eU,
  0xbd42a2b9bd3dba4cU, 0x3d3d2adabd16e9c8U, 0x3e1daecebd7dc2b2U, 0xbbde991b3e4afa73U,
  0xbebd00363e50165fU, 0x3c5fe7efbe39d934U, 0x3d7d74953e725935U, 0x3c21fe15be06ec1dU,
  0xbe24f3adbe110fd6U, 0xbc70d456bd3caff6U, 0xbdf7fcb03d23585eU, 0xbd3f48753e0ef4f5U,
  0x3e245daf3e035f0fU, 0xbdae71c3be7e0109U, 0xbdd50613be20fce0U, 0xbccf8afe3e2e4e7eU,
  0xbda52ab03d85ba0eU, 0x3da0819e3c732d11U, 0xbd97a54dbd0c69a8U, 0xbcc153953c21e721U,
  0xbd18f3adbda0f85eU, 0x3d0de341bd211ad7U, 0x3da472a63d6bbdaaU, 0x3d75ffabbe067e67U,
  0x3d5d47c43b21089eU, 0x3d6bd66f3e598826U, 0x3daec5f13e1f9b30U, 0x3cdb4a5b3df16ca5U,
  0x3dd6c518bd3ddbcbU, 0x3dc4ef1ebd865c27U, 0xbda9ca72bd9238a0U, 0xbd39fbcf3d5b9729U,
  0xbc86210a3aeefc38U, 0x3e6239323d25b141U, 0xbe092b53bd8a1b17U, 0x3e0160c3bd59c8b8U,
  0x3da9d37abd4d2725U, 0x3da225e8bb76207fU, 0xbd029461bda805c9U, 0xbd74904cbda3e4caU,
  0xbd5ab1e83e44600dU, 0x3da779da3c514d39U, 0x3e1078443d90b3bfU, 0x3cf07768bd67d2abU,
  0xbe2750bc3b951dbfU, 0x3cb0e6a53e9ca072U, 0x3d0e536cbe5589c5U, 0x3d6922d53db5f157U,
  0x3dea18a0bd818a6dU, 0x3e0892023d472ac7U, 0x3d89bf933e05643cU, 0x3e08cdc5bc6256a1U,
  0x3e8489873da14887U, 0x3ea00bf3bdf50cafU, 0x3e2b836f3d424096U, 0xbcd5b8ba3e187c28U,
  0x3e283e083e6b05baU, 0x3ddfc2b83e2fdb0eU, 0x3bac7c6f3bb31c3bU, 0x3e93bbb6bdc9b0f7U,
  0xbd9c2b8bbd0b4698U, 0x3d77e8aebe03076cU, 0x3bac2cafbebfbc4fU, 0x3d1eaa67bd222cd2U,
  0xbe6eb95b3dd2699dU, 0x3d7efc5bbd8364f9U, 0x3e0213093e02f7a4U, 0xbd8e79ddbe171ddfU,
  0xbd0c8911bea0c9a2U, 0xbe277871bd82b5adU, 0xbbc8d3a93bcdf96eU, 0x3e1cbc823d2fc9faU,
  0x3c9f71043e383dbaU, 0xbce0d292beb68f90U, 0xbe1c331fbdc26762U, 0x3e02f07b3e0b7b65U,
  0xbe191c283d12e478U, 0x3e15a1533db62afcU, 0x3d2ddd9fbe4b8e3dU, 0x3d6e74803d58e1f1U,
  0x3d9a500bbd928b3bU, 0x3daf81c6bdc5c50aU, 0xbcb75584bd8ece8eU, 0x3b72d2e1bdf20f48U,
  0x3e4432ee3c735c38U, 0xbbfbd71cbb31d631U, 0x3db34ad43d81d7d0U, 0x3de1c2f33d87d4f7U,
  0x3c3e1071be5145eaU, 0x3e3c22d9bdac77eeU, 0xbdfc900ebdaa92d6U, 0x3d74c47ebe1a61a4U,
  0x3dc8bffabce63c2cU, 0x3da0ae103d568553U, 0x3c8225ccbbd28f45U, 0x3d2fab74bca4a16fU,
  0x3d2af5973dd9b047U, 0x3da37817be0f7199U, 0xbe175ec1be0763ccU, 0xbd2050b8bd74a4c9U,
  0xbd9b63b3bdfb23c4U, 0x3de824c43d311b95U, 0x3da267adbc57ca18U, 0x3dedf656bd4b4b87U,
  0xbd7811a3be42d5fdU, 0xbdc72d9d3dc6e782U, 0xbd9b19c1bd72f4fdU, 0x3e3369d83e59f005U,
  0x3dc4d94abcd06912U, 0x3e6a4dafbd7f67aaU, 0xbd0b44103dcd8c43U, 0x3debaff7bc52b8d6U,
  0x3cab7e6dbc8a3648U, 0x3d6424f73d4f3408U, 0x3d933d1bbaccf10fU, 0x3e36625d3e83a97fU,
  0x3d17e9b33e034479U, 0x3d59334d3e10804cU, 0xbcfa8a71be0fd60eU, 0x3db2043cbc928864U,
  0xbe53bcedbd59447dU, 0x3e0e37aabdb500b3U, 0x3e1969cbbe04c3b6U, 0x3d82a83a3d9ce01cU,
  0xbea808c63d5cbe8aU, 0x3d87a2aebe3ce49eU, 0x3d42ca8f3de023cdU, 0x3d0c2b4cbd353fb7U,
  0x3bebeffbbdf8ea3fU, 0x3d1a5c1dbe268f6dU, 0xbd69c4233df99e8eU, 0x3d0e9a153db010ccU,
  0x3e31983e3ea2ab87U, 0xbe0fcc0ebd2cc41aU, 0x3cfc0b2a3c424079U, 0xbe051b5e3daace0cU,
  0x3c67efc1bcfdc282U, 0x3dc1d6783d7d2b74U, 0xbcb9bc94bdc064ebU, 0x3dd47661bd71502eU,
  0x3c8495da3da7b932U, 0x3dbb02c7bdf25c4cU, 0x3e26cc573e24ebd1U, 0x3de421c2be365c78U,
  0x3db2c34abdf056faU, 0x3dde018abc9820baU, 0x3e03779e3e0ef7cdU, 0x3d9e2c0b3b8c99f9U,
  0x3e2db7cbbd22cd0eU, 0x3d1be44dbe0f07c0U, 0xbdd80c6cbca61f5bU, 0x3d353e7dbe8095d0U,
  0xbb6ce634be2a7fb6U, 0x3d9285863dab165aU, 0x3d50b8bc3e4ed0faU, 0xbd1dfbab3daf5fb8U,
  0x3d8234143e428e8fU, 0x3dd70df9bdd485a1U, 0xbd6a1536be4ea960U, 0xbc88576f3d25767fU,
  0x3d99a8c23e227728U, 0xbdd6b8c23dfeedcbU, 0x3d2628b43db0baf5U, 0xbe36e617bd2f2f7dU,
  0x3bee9e3bbd3614dfU, 0x3df874663da1dc43U, 0xbe25c1563c7bea7eU, 0xbb727d4f3e0e210dU,
  0x3dd129d1baf67df5U, 0x3e0e6140bcd0ca13U, 0x3e627b583d50a877U, 0x3de586c63d00d8c3U,
  0xbd6f9bd93d4cfa4dU, 0x3e2fa46ebe1bb45aU, 0x3abc075b3c02fef0U, 0x3e18fbf63cff2ca5U,
  0x3e186c1e3e7c5eceU, 0x3d9fd4dc3e6bbc0bU, 0x3d1a2df4be145b4dU, 0x3e69885e3d0de22cU,
  0xbccd3868bdd4cf78U, 0xbcfb7911bdad1788U, 0x3db6106bbd9b2bfbU, 0x3dbd6eea3ddf8b3bU,
  0xbd4f1b1abd9189c9U, 0x3d98980cbde09decU, 0xbcc7814e3e394d76U, 0xbb320127bdf179b3U,
  0x3d3db09ebe222104U, 0xbc791badbd6d751fU, 0x3cc13349bc296bd4U, 0x3e0480563df644e8U,
  0x3d9b2049bc5b576aU, 0x3c42a56dbe4e0d51U, 0xbd764741bdceb5f9U, 0xbd75be0c3dadc837U,
  0xbdcb2cd23c930f4dU, 0x3e1d90183dbf93a3U, 0x3e3d4f92bc6123a9U, 0x3dab3ed5bcfca02aU,
  0x3ddf1386bd02445dU, 0x3d111eb2bd699518U, 0x39888fba3d615c9aU, 0x3dcb889fbe2af260U,
  0x3e02b5b53d1cb1f3U, 0xbddace4e3d441c8aU, 0x3deeba3f3e12a4c1U, 0x3e040b393de874b5U,
  0x3d2d09bdbdfe5750U, 0x3e0a35f0bda33ff7U, 0xbe187640bb8eab89U, 0xbd18bdf7be5f61acU,
  0x3e5e517cbe086271U, 0x3dd60f70baf26509U, 0xbe3eeeda3d97aab4U, 0x3d278e88bd312a79U,
  0x3de7a06f3d99d575U, 0xbdf6725abd887588U, 0xbe53da9bbc78812dU, 0xbdac4364bc8a8067U,
  0x3d36030e3dcea309U, 0xbc7dc8d93e2623efU, 0x3e01afa83e4276f7U, 0xbd3d1fdfbe2d2a08U,
  0xbcd40cfebe26e184U, 0x3d85a0553e3d3816U, 0xbd2c2bbc3d62b681U, 0xbba401423d1d6da3U,
  0x3cf9bb483d37516dU, 0x3e234e0a3b176da7U, 0x3e714cffbb1559d2U, 0x3cc8562cbd3bb9f0U,
  0x3dad498b3d86e7adU, 0x3e34fe20bb9cfc10U, 0xbb8cd9863d61b1a4U, 0x3cdc11c83d7298a7U,
  0x3d5e07af3c80d853U, 0xbcb85be93dec867fU, 0x3e15f8693d2cd022U, 0x3dfbb49abd86dd5bU,
  0xbcc78736bdbe3c05U, 0x3deef72bbb93afc6U, 0x3dd79fc0be053276U, 0x3d914e0e3e3af1a6U,
  0x3c6ede6c3c89f185U, 0x3da378edbd3a0535U, 0xbc8a87613e0cf712U, 0x3dc0d5e3be1dc545U,
  0x3cc19293bcfcf694U, 0xbdaf22783dabf3eeU, 0xbd963f723df9be90U, 0x3cd04c683e2d5596U,
  0x3d7c65c83c56af20U, 0x3de9dea0bb00951fU, 0xbe2caadebe128d6dU, 0xbd33c93d3daf697cU,
  0xba464eae3d1d6967U, 0xbd5556d23df6efebU, 0x3d31441cbc4a8fe8U, 0x3e57e6313d1069ddU,
  0x3cd55c893cc3f246U, 0x3bc7f6ccbdcfbe72U, 0x3e0e25f53c97cb4aU, 0x3dbeb275bcb507ccU,
  0xbccec16ebe1f894cU, 0x3e6d05733d559da3U, 0x3da124163d54c6a4U, 0x3e1b91f63dbe3fe2U,
  0x3dbde405be2f0aceU, 0x3dc3dc42bc9d6faeU, 0xbdf2e8b03c2dab1bU, 0x3ce7fa4c3d84f4d8U,
  0x3d270001bd5fc6a0U, 0x3e05de193e1ae8a2U, 0xbd34d2a33ce1e48cU, 0xbbb084e4be5d8ecbU,
  0x3d04ede43de11908U, 0x3a02a3a1be545cbbU, 0xbe786376bd9f469bU, 0xbdabeaa53d55644aU,
  0x3cd3124c3e401254U, 0xbdc96bc43e849b00U, 0x3e23acf73d32564eU, 0xbda7673cbdcdf483U,
  0x3d756558bddd7942U, 0xbd698cb43ce1ba0aU, 0x3cffe750bd5ff222U, 0x3e3dfc6d3dace7c8U,
  0x3d99f1d53d2a241cU, 0x3dc0eca7bd41d5a0U, 0x3e24c6a73da21a63U, 0x3dcab0d73d56251cU,
  0xbcf38300bd4111c4U, 0x3c177ecabcc21836U, 0x3ce14368bd3c589bU, 0x3d042f353da184d2U,
  0x3d945c9e3df73040U, 0x3e51a5cb3e1d311aU, 0xbcef77f0bd4d41c0U, 0x3d20d9e7bd9f10c4U,
  0xbd11115cbcf1e14dU, 0x3e1c9501bd4af324U, 0x3cfaca4f3d75f705U, 0x3e26cec83e08148bU,
  0xbe06db223ce0d5ffU, 0x3c479896bd6ee2dbU, 0x3d80a41c3e006ec3U, 0xbd610d3fbda0cad6U,
  0xbdb6de3cbe70abe2U, 0xbdd0ee08be06565eU, 0xbd6ca0e13cf830afU, 0xbd272ce03d69dc87U,
  0xba9cb4653cf9e1daU, 0xbcd755e5bd806f68U, 0xbd862381bd357621U, 0xbd6d87683cfb956fU,
  0xbc8bce1d3e0d06f4U, 0xbd206223bd99b6d6U, 0x3e0c543b3c81a724U, 0x3d26c0debca3d61cU,
  0xbd040d0a3d8522ccU, 0x3e8c64bb3cdea239U, 0xbcf594143da4bfbcU, 0xbd090b9abd496f7eU,
  0xbd0a01643dcfc93cU, 0x3d56731fbd5127ccU, 0x3e264d8e3d2a9d87U, 0xbd1db5be3c1a9148U,
  0x3d9b6d40be2e2b53U, 0x3d4be8043c52b994U, 0xbe07c690bdf5c64aU, 0x3ce650a9bd1a7690U,
  0xbcfb2acebdb35e83U, 0x3d8d136b3ccb2422U, 0xbcc2d6023d580e88U, 0x3e3c1938be3caa17U,
  0x3d0b00453c2d1c8eU, 0x3e246b56bd9dbb08U, 0xbbae5f93be12648cU, 0x3dca1ca4bcbd7dd8U,
  0x3d22e75d3d82d8d4U, 0x3d612d6d3d61ccb9U, 0xbcadc4443c075692U, 0x3b5a9752bd53df10U,
  0x3d42fee3bcf8f73cU, 0x3c86838c3e0815a6U, 0xbddc125cbb3e3ecdU, 0x3e12f8673db142c0U,
  0x3cb9862fbd5c740fU, 0x3d1cff383d9536bdU, 0x3c0b83ab3cb3da7cU, 0xbd9451183dca8cb7U,
  0x3cd744a6bcdec03fU, 0xbcbf04a8bda18637U, 0x3ca5b2e7bcc9c997U, 0x3dbdbb8abcb832a7U,
  0xbd9a7cbb3c2bca4bU, 0x3c6867e8bdaeca1aU, 0x3d167df93c7548bbU, 0xbdd775fcbd5c79bbU,
  0x3e1b3b283ccc3581U, 0x3d0638293b901dc6U, 0xbe1385b53d68e74eU, 0xbca1773f3db88872U,
  0x3c9abb5f3d02d9c1U, 0x3d5f0f58bd28a0eeU, 0xbd3ff4633d0b757eU, 0xbd8d991abbfeef6cU,
  0x3c9a3a973d35a0b4U, 0xbc6f1aa63c4ed65aU, 0xbb7d579cbd0bd0c0U, 0x3d8355f23daba4ffU,
  0xbcdb42593d850f11U, 0xbd8ace19bb4b005fU, 0xbd0f654a3d2a3afeU, 0x3db996f83c602cd3U,
  0xbd0763a5bd9ec5c2U, 0x3d6d7a1fba809c36U, 0x3ddce5543dde4f72U, 0x3e0f5ce2bd39c19dU,
  0x3dde5a363d6513a4U, 0xbd636bd43d7f3d32U, 0x3dba5db1bda3873dU, 0x3cf08d5bbd2e065aU,
  0x3d7e1f92bcdbdaffU, 0x3cf5bde03e2814afU, 0x3e12e5283e27e154U, 0x3e0001563e1824a5U,
  0x3d951dcabe2ee464U, 0x3dadd5af3e322e87U, 0xbdacc22ebdc2e1ffU, 0xbd45373cb9b07d4eU,
  0x3e0c7ad4bdc318adU, 0x3dcd57e03d82b8ebU, 0x3b299a353d959666U, 0xbc8a44b43caaccb9U,
  0x3d810b293e02b62aU, 0x3df50ee4bdd08bf7U, 0xbe42cca1bca7695cU, 0xbd37e827bdb767a8U,
  0xbdde0a503cc88c9bU, 0xbd25186f3df7aa7eU, 0x3d3811eabe116f6aU, 0x3da823cdbda90a85U,
  0xbe3d8974bd0dfa9eU, 0xbe3a0fd33e24bf74U, 0xbd00aabbbe1c6542U, 0x3df29e9c3d30c0c0U,
  0x3cd74173be427e54U, 0x3e32a7c6bdaab516U, 0x3d895db73c3ac8baU, 0x3e0b079bbd959c84U,
  0xbb0102253de858a3U, 0x3deb7774bc83d451U, 0x3da33f9dbe428408U, 0x3e8812313bb5b033U,
  0x3d6461d13e0e5b5cU, 0x3da16cb83dca2c56U, 0x3c61042cbd398888U, 0x3ddbc4e3bd88adb4U,
  0xbdedce50bdacab41U, 0xbc5b51fdbdbdfc19U, 0x3de6afbebe4e7176U, 0x3dab6e3b3decada2U,
  0xbe52ad213dcc41efU, 0x3d8f90e23d0fd0a7U, 0x3e2f34403db13e95U, 0x3b5a1f70be291571U,
  0xbe0b750bbe3d6681U, 0xbdf01100bdd4e4f0U, 0xbcf18d4e3d37fadeU, 0xbd5941373e49cbb1U,
  0x3d978eba3e822ec7U, 0xbd6c70c5bd9e2e17U, 0xbd38b7ebbd81165aU, 0xbbd544473c6605b3U,
  0x3c5d18d7bdc4e904U, 0x3c9e3375bcdf9639U, 0x3d15be6d3e6cefaaU, 0xbdd9c53e3ccb68d5U,
  0xbd8109a3bdbd7f83U, 0xbc5e73e8be295b89U, 0xbcbf11d0be08cda7U, 0x3d4b49f5be2d2f26U,
  0x3dd6846fbca82fc7U, 0x3d459b7b3cdcd0d7U, 0x3cd161e63d3c87e0U, 0xbe180656bd04ec14U,
  0x3b727f34bd2fffa4U, 0x3d8300313dab4d9dU, 0x3d468a7b3c588358U, 0xbd488cf4bb029869U,
  0x3ca948963cabf795U, 0x3bca198ebd1821f0U, 0x3e029d54bd27ca15U, 0xbdd9bbaf3df3023cU,
  0xbd354ab6be03f4faU, 0xbd0314dd3d1f4203U, 0xbca02af33d328c9cU, 0x3cc0dde13c495255U,
  0x3d94168e3cffe2acU, 0x3dc14f13bc56c22bU, 0xbd6845f63d85dc8bU, 0xbd2e1742bd5ec496U,
  0xbdcdd69ebde6c97aU, 0xbe392a993d8abdb7U, 0xbdf6e213bdc46502U, 0xbc9385eb3dbecadcU,
  0x3df1b609be4b57d2U, 0x3e8485f4be1ef24dU, 0x3da918cb3e852a48U, 0x3d5d67afbea45f21U,
  0x3e6276603e603b8bU, 0x3e3ff625be5e334fU, 0x3e2d2c4fbdfaea70U, 0xbc9089863d84c75cU,
  0x3dd8280c3e73c24dU, 0x3df859d43d8f7a32U, 0xbcb72603bde9de0cU, 0x3dd49114bd9b43b7U,
  0xbe0e6dfd3ccb1636U, 0xbd4ca47cbd9b4580U, 0x3de6b5aabe23ab06U, 0xbde6d0b03e043675U,
  0xbd95849b3ea51be8U, 0x3d78c09bbdfa0ffcU, 0x3e3aff073e245df3U, 0xbe27ea0dbe35bae8U,
  0xbc98af88be895199U, 0xbe03a7d93d7b35c2U, 0x3db5ba35b9a72b16U, 0xbe78e5b03db923f5U,
  0x3cc778c93dee433cU, 0xbe665dd5be426518U, 0x3dcafe6abdf4f6b1U, 0x3e4d41493dc33887U,
  0xbd012faf3d1eef48U, 0x3d570b0c3e2c1d81U, 0x3e0fd9fdbc8dfe3aU, 0x3e1d890f3cc3996aU,
  0x3b7412c5bdf3dec0U, 0x3c87534e3d7ce788U, 0xbd39fdd1bc1f5462U, 0x3e0ee49d3d00fb68U,
  0x3e11915abc0b3fccU, 0xbd1c86523bea1e56U, 0x3e090a413e2f8cfeU, 0x3c2c996f3b786973U,
  0x3d720425bdd2a623U, 0x3e10c7d2bd8a16deU, 0xbe4c22c23d7f63f4U, 0xbc06b7d9bd96a527U,
  0xba13e71f3c235d52U, 0x3c75f4e73d445da6U, 0xbe38f781bc96a9d2U, 0x3d991b423c45741aU,
  0x3e0e2d153e26f198U, 0xbcf04d5abde1248aU, 0x3c9957a4bd951754U, 0xbda97f7d3d78e45dU,
  0xbd51e5523dc198e9U, 0xbaf5ca393dbb9381U, 0x3d44c3ac3b4f692dU, 0xbd3a3463bd55aad2U,
  0xbcedf47abd92932eU, 0xbd091f253e1889b6U, 0xbdd4eee23be598d0U, 0x3e2fb9363e4b66cbU,
  0x3de54f85bd8c0ce7U, 0x3e0c800bbdf1ea8dU, 0x3ddf7c63bd0f4b3dU, 0x3e502cafbdb2d5b4U,
  0xbcc5ad4b3d400244U, 0x3d86096bbd9650c2U, 0x3d95b709bb5fc8f6U, 0x3dafcf1a3dbea171U,
  0x3e0ab5f03d89298bU, 0x3dd03f8d3db1768aU, 0x3e272557be23445fU, 0x3b8aa6bbbd7b6bebU,
  0xbd1c92b3be67b47aU, 0xbd55b2bbbde23d51U, 0x3df583b5bdbdd041U, 0x3e42dce63e70e5b7U,
  0xbe72a46e3cde4138U, 0xb62c6260bdfd401dU, 0x3de757d73e392725U, 0xbdff4047be69feefU,
  0xbe01e55abe02993bU, 0xbdd85da0be469fc9U, 0x3dcd9c0d3dffacafU, 0xbcd481123e5a38afU,
  0xbd1b1eaf3d706151U, 0xbda39074be5300e0U, 0xbd7e46f6bd87ae25U, 0x3db32d703e266909U,
  0xbd18a9e43dd75a8fU, 0x3e358067bdbd68d4U, 0x3dad69a6bb9434c6U, 0x3e69bc553d79d7bfU,
  0x3d752715bd9e60b2U, 0x3e0194cbbd9f94f0U, 0x3e633eb63e912d44U, 0x3d0b300ebe1c3895U,
  0x3e3b8428be40f2a0U, 0x3ca0e8203dbd15cfU, 0x3e1e559c3d250a5fU, 0xba86e597bc2eea40U,
  0x3de0c54dbdea1ab5U, 0x3df6183e3c04fbb3U, 0xbe2e0188bdddf19fU, 0x3ccd8517be4768fcU,
  0x3e3dad72bddd7c4aU, 0x3de3c82c3e5f007bU, 0x3c471506bd542246U, 0xbd27f4cbbe332aa7U,
  0x3e0abbb13ddf11feU, 0x3b5bcee4bd86bba2U, 0xbc092667be0cbe17U, 0xbd8e46ab3b89731aU,
  0x3d2b3db43d7e6c67U, 0xbd47ce503db49716U, 0x3ddf33f1bdc67569U, 0x3cfc8599bd8757dbU,
  0xbd8a07aabd4af9a3U, 0x3db6384e3db0b313U, 0xbdebcda0bc95875aU, 0x3dd961973cc025d1U,
  0x3e0cc74c3c414c11U, 0x3cfb909fbd000332U, 0xbcc74af5bd42a32aU, 0x3d1ce8b53cd85795U,
  0x3d9c48973d9467e3U, 0x3dc45705bcaa47a8U, 0x3dc8e6acbbcfab07U, 0x3dfd4a56bc8bf755U,
  0x3d548b5c3caabbaeU, 0x3db902893dfcbf03U, 0x3ce69ab6bdf76f45U, 0x3cbba5143d8d5eb2U,
  0x3c88a882be1179b9U, 0xbc217f8fbd1b54faU, 0x3d812e57bd1614c2U, 0x3dfc98cfbc552926U,
  0xbe184968bd259176U, 0x3dbf1709bd96dd17U, 0x3db27d7e3e3319feU, 0xbccbe8a73b13bb3cU,
  0xbd7eff9cbe41c7ceU, 0xbd856ee9bcd89230U, 0xbe4ca44f3c490b2bU, 0x3d2d5a6d3e05623dU,
  0x3dce8ebebbe06854U, 0x3cf9ed84bdfc6ccbU, 0x3c170ba33d29d25eU, 0xbd66be813e677028U,
  0x3c8278123d0b1bfbU, 0x3d4fb6913cbba116U, 0x3e1df4123d205171U, 0x3db7478d3d8b0727U,
  0x3d13b33ebd950b78U, 0x3d58d7e0bda23e95U, 0x3cb8d257bd0a5fdcU, 0x3d0ffaf6bd8a4c2eU,
  0x3e54f219bdebc5e6U, 0x3d8b29be3e02ff7eU, 0x3d19164fbc76fcadU, 0x3c9df0693db5559eU,
  0x3dc15a6cbd423304U, 0x3de116ba3d8ff6c5U, 0x3c5da41bbdfdd982U, 0xbc93087cbc8c21d1U,
  0xbd7fab7cbce7ff4dU, 0x3bd0c0fabc844500U, 0xbdcad158bd5a77b7U, 0x3c36bdf3bda68367U,
  0xbd3901903e1580c3U, 0x3dbea0d13d376462U, 0x3c6c8510bd300c44U, 0xbd9611b73dbe0155U,
  0xbd5404b63e357996U, 0xbd663ce83daca26eU, 0xbd9500313d59bd27U, 0xbcb5f6ecbda8ef77U,
  0xbd7ca06ebd80e2e5U, 0xbdedd3883d99e140U, 0x3d07097cbccb0ee9U, 0xbd7435e0bd68e398U,
  0xbb8168d7be10a06cU, 0xbc933b233cb0006fU, 0xbce061883dfbbb77U, 0xbd1f6d6bbe22c904U,
  0x3e1bb4763df45680U, 0x3d9a12a8be4c8982U, 0x3e00bdf1be1f88c1U, 0xbacdfcdc3d5dd2e6U,
  0x3dcc9a69bd70ef22U, 0x3c5defba3e13ee62U, 0xbd8b8c353bd77997U, 0x3cf7a26bbe205966U,
  0xbda42ec8bddcdfbdU, 0xbd590c2cbda0fed7U, 0xbc7a9a62bdc73204U, 0x3ba33ce2bb80dbe1U,
  0x3de0e6a73d9a47dbU, 0x3e0d736fbc875d87U, 0x3d7ccbebbbe3cf71U, 0xbd27049ebe1bab1aU,
  0xbd64f5503ce55d87U, 0xbdd072e33d22b37cU, 0x3e2ffecd3d58d0f2U, 0xbd8bdaed3d6e1264U,
  0x3dcbde49bda5498eU, 0xbd250526bc845eeeU, 0xbe6a18be3d0ee1cfU, 0xbd8a8c9f3da64b9dU,
  0xbda270b4bd361386U, 0x3dd427093e0557f3U, 0x3aa972afbe4cce33U, 0x3e563cd1bd52f21dU,
  0xbc0f337c3d4b33beU, 0x3df8c440bd7f6412U, 0x3e3c493c3e2f7119U, 0x3dda2c41be811f9bU,
  0x3e24d3cf3d073337U, 0xbdd5f7913d54f002U, 0x3e3a7ea23db1a1d1U, 0xbd5d69cb3d82ee1fU,
  0x3dda0ea7be13a92aU, 0x3e4b006abd3c99deU, 0xbd208586be20bdc1U, 0x3dbf274bbe3a3c43U,
  0x3e06c20abe1c1b50U, 0x3e4c36533dded56aU, 0xbdd01b093cdad781U, 0xbd8da28cbe05bfb3U,
  0x3d323ac13e43064aU, 0x3ba347bdbdca519bU, 0xbc75bb04bd935cd3U, 0x3c5f39d4be2a0647U,
  0xbd142b633e048244U, 0xbc53b8093e13f390U, 0x3e039825bdbf34f8U, 0xbdbb2ae9be40c4f2U,
  0xbcbd47cfbd99222cU, 0x3bfee6063d6c35aaU, 0x3dc09fe53d5bbb9aU, 0x3d6129183e29a149U,
  0x3d887861ba6d995aU, 0x3dc944ab3b8684d3U, 0x3da8fdc1bdb2fdcdU, 0xbb18afc73dee3fe9U,
  0xbd1ba5043dcedb40U, 0x3e438fe5bdfa535bU, 0x3dc4d3603ca1b013U, 0x3d85513bbd7b1cf8U,
  0xbdc9761dbc7f8854U, 0x3d8399263cada29bU, 0xbbd7c4e1bdcaf5d6U, 0xbd99a1473d72dd2bU,
  0xbcf608c0bd8a12b6U, 0x3d4b18e83b62190eU, 0x3e0b0b9fbd832ff9U, 0x3cf7cf72bdbcdb73U,
  0xbd4c6a333bef5c96U, 0x3c7eb8f3bcf6cefeU, 0x3d2f4c3a3c650023U, 0x3db000cebca57397U,
  0x3ba17fc3bd87127aU, 0xbe402545bd52fd2cU, 0x3d05d9903cea07faU, 0x3ca303683e1a8273U,
  0x3d81c4163d1f9955U, 0x3a99344cbe05d677U, 0xbe14430abde26f12U, 0xbe0c0ce13e80244fU,
  0x3cca77e3be92277dU, 0x3dbda358bc4338d7U, 0x3d25e1f0bdf4a427U, 0x3df5bbc1be33c423U,
  0x3ca3e0973dcc472aU, 0x3d62180c3cae2372U, 0x3e8bd7d13e52043dU, 0x3e07f449be391bf9U,
  0xbd3c63e9bdef388eU, 0xbc7a468dbd5f9fcfU, 0xbd2ca9353ddf0f09U, 0xbe05dc703ddfe7f1U,
  0xbe5469f13db4313aU, 0x3e202c0ebdd0298aU, 0xbd90ab1f3e3b5cebU, 0xbdd1b4c03e8f3e31U,
  0x3dbd504e3b991ff9U, 0xbda0f16bbdd25f04U, 0xbe0492da3d9d678dU, 0xbe4583fcbd5302b4U,
  0x3e17e239bc13339bU, 0xbd4c5193beaed9b4U, 0xbcad90d3bda7a2adU, 0xbde152b43d38d685U,
  0x3d0e75a3be169752U, 0xbe4151473d2d59feU, 0x3ce764de3df965d9U, 0xbe25b6fbbdf055abU,
  0xbdcd3a163b1c8b34U, 0xbd4ea7883cb8ef47U, 0x3cce9f30bc937b72U, 0x3dd19cc93e01f97fU,
  0xbd7af9c13d0267d4U, 0x3d438f343d713a07U, 0x3da45f49bc2d3242U, 0xbd53c721bd3229ebU,
  0x3d6587843c5ec039U, 0x3ceb33aabe018c7fU, 0x3e06d367bc0dcc7eU, 0xbc88ced2bbde0b7dU,
  0x3e03421abb1cf5d0U, 0xbd12b3613cba0a6bU, 0x3d1e4d02bc909c4fU, 0x3c99020d3d5120c6U,
  0x3c8038d5bdb2976cU, 0xbd1d04933d2dd69cU, 0x3cf10b9bbda39c00U, 0xbcad5b833d093f87U,
  0x3cf165bebc8f68c7U, 0x3c8707e3bd9ebe97U, 0x3cfab4fc3d926c16U, 0x3dd43191bde71591U,
  0xbd2ed385be02a199U, 0xbd6fea14bdca651eU, 0xbcdb39373e101b14U, 0x3cd18216bcf95a36U,
  0xbd53fbbd3bc9ae66U, 0xbc8ae4953984f34bU, 0xbdc94850bdb081cbU, 0x3d6e8d8f3deeef52U,
  0xbd1cc397bd7d9d14U, 0x3e565e983dcdd55dU, 0x3d8e630ebd7d9c99U, 0x3e0d5e543ddeaf6fU,
  0x3e161a413e0953bfU, 0x3e2ab585bccfa168U, 0x3d2834b83d08c570U, 0x3e47fa5bbdfc8634U,
  0x3df296a5be099e2fU, 0x3d02546e3d42207fU, 0x3dea93403e406ac8U, 0xbd3f3b4b3e4797efU,
  0xbcb9a02abd76c135U, 0x3e9615fcbde559d6U, 0xbdc61c09bcb3be51U, 0x3df03eafbd708c30U,
  0x3cd17ee0be66c13aU, 0xbd2d4d3cbd0e7ddfU, 0xbe852a353d6d4fffU, 0xbbc679d6bdf2cf8bU,
  0x3e260c463de3abfcU, 0xbd03794cbe5c193cU, 0xbdb964b3be667803U, 0xbd18ca473c958c96U,
  0x3e04903d3d997c0bU, 0xbe0252ce3dcc8ef6U, 0x3e767e5a3e093a23U, 0x3d2cb2e9be0b2b46U,
  0xbd1fd764be43572eU, 0xbd6786383df7c169U, 0xbc7e43e73c23e4e4U, 0x3d4b8834be12255aU,
  0x3d9a93513c41c96aU, 0x3da44f13bde94a79U, 0xbc1b490d3d130508U, 0x3d175a75bd83b4dcU,
  0x3db6a1663db0daeeU, 0x3e342327be12744cU, 0x3c5ad8b5bdf1daf4U, 0x3e0faad33d19a081U,
  0x3d2ab39a3d78e456U, 0x3d7170dbbd0678c7U, 0xbc1f91fd3d930e35U, 0x3c98aff5bd74c862U,
  0xbd714da73d74912eU, 0x3bc8dc323c0cabf5U, 0x3cbf53883d25e440U, 0xbdb431b13d46fcddU,
  0x3d3b4a783dd8256bU, 0xbdcd73b53d68b212U, 0x3de0e4193c0cae3aU, 0xbd929009bd9aa3aaU,
  0x3d4c41bdbe0b00ccU, 0x3df1d8833c78806fU, 0x3d0eb4f03caef5f8U, 0xbd8c53f3bd435264U,
  0x3d9d14493dc17acfU, 0xbdffe5adbce1ac8bU, 0xbdc2c0cabde664a9U, 0x3cae4dbe3dc3eb28U,
  0xbd778226bdd14343U, 0xbc527686bced50f2U, 0xbdc10146bd396ea2U, 0x3dc332a03d48aac0U,
  0x3cba404cbd1643b6U, 0x3caa247dbd6459f5U, 0xbd9ed538bcb96b52U, 0x3db95ea6be1447e0U,
  0x3cec77e63d804476U, 0x3cb084843dac682fU, 0x3e61b5fd3cdc9f82U, 0x3dcbbc603db4727aU,
  0xbc8b83483d5c2f6bU, 0x3d8f422abd042d02U, 0xbba452113b8ef6aeU, 0xb93709553dc02f5fU,
  0x3da2371d3c7dc0b3U, 0x3bd077b13d5d7a61U, 0xbcd770d0bd504326U, 0xbdc216ec3cdc3ccdU,
  0x3d8f49bd3bb5d3f2U, 0x3ca0beccbdfc0396U, 0xbe43891bbe32c819U, 0xbc3de8d73c81ac97U,
  0xbc71a22ebcc309dcU, 0x3cc064253deb7202U, 0xbc9d849e3dd5bdf6U, 0x3d5207fbbcf60959U,
  0xbe11e3543bbff876U, 0xbe3012733de54976U, 0xbe081c34bdd076d2U, 0x3cc8fd233c642a3eU,
  0x3ca58584bde138e2U, 0x3d9a089dbdb69309U, 0xbc4a73e7bbdf69e1U, 0x3d080e6dbe3b9f7dU,
  0xbbc66ac63b72cb03U, 0x3e18bb7abdec1d41U, 0x3ddd7a9dbe24fb52U, 0x3e0039e63d2c483cU,
  0x3e3630ed3e104c27U, 0x3c8369353d9ed8d9U, 0xbc335f43bcfddab8U, 0x3e1049d6bde13a91U,
  0xbe18d25d3d39acacU, 0xbd29aafabded99a3U, 0xbd8cfc633ce4c74aU, 0x3de31a1fbd8dd517U,
  0x3bc6e17f3e161422U, 0x3ce5945dbcc6514eU, 0xbd9b73f13e500d1bU, 0xbddf23c2be2b1718U,
  0xbd1dc693be40ba1aU, 0xbe19194e3deeafd1U, 0x3dac1e143dbca8a1U, 0xbdbf464dbcac7335U,
  0x3b642424be0491f7U, 0xbe07d4f9bbba812fU, 0x3d4a3538be2d856eU, 0xbd00bbf0bdf13d5aU,
  0x3e19389abd930798U, 0xbe1f7572be1e3333U, 0xbde7de28bdcf99beU, 0xbe68680dbdcaa08eU,
  0xbc229e98bbd508ccU, 0xbcbb6fcbbd0c9c7aU, 0xbd048ea33b95e665U, 0xbd9d69863e3bc98cU,
  0xbe2bbeec3c7b1a61U, 0xbd4f9717bdb8a1e5U, 0xbdf1b6b5be1b5d1dU, 0x3b87126bbddf44acU,
  0xbca8dfa23d986ba8U, 0xbe31553b3c9c68d9U, 0x3c1e6da53dca4427U, 0xbe2263fa3da7f1eaU,
  0xbd968bb83e2425c2U, 0xbe660e54bd950f2bU, 0x3e8084c4bdd4873fU, 0xbcf455a93ddf96c2U,
  0xbd5ca7a7bdc043b8U, 0xbc81d3233d902c08U, 0x3e28ed9a3d4d3c99U, 0x3dc29a663dd3a243U,
  0x3ded7a85bd48c205U, 0x3d0428d6bd868f4bU, 0xbddff31ebdceb68bU, 0x3d46e9d13d98093cU,
  0xbc88b56f3dc94617U, 0xbe17f2b03d2d7638U, 0xbe1536a03e06f4bfU, 0x3d5ff2053d3d9dc9U,
  0xbcd9f7dabc872c7eU, 0x3e0ee9b93db67049U, 0x3da7349abd072589U, 0x3c732ecb3db47296U,
  0xbc40ce84bc435249U, 0x3e2b7b1cbdb032f0U, 0x3dd11a93bc877868U, 0xbd8f310f3d9b2251U,
  0x3dff34fc3dc9152fU, 0x3c9d51173dad9d00U, 0x3e0e852abe2ce0deU, 0x3c8826c4bdd3d3ebU,
  0xbe122c0fbc98660eU, 0x3e0a588dbd049dffU, 0xbcd8d227bd385c0eU, 0x3cef07433dc3146eU,
  0xbd3b1afc3d06cefaU, 0x3d9bd2babd74b9e8U, 0x3c61ec6b3c2121f7U, 0x3cae95fcbe2eeb13U,
  0xbdbe853ebe0e9316U, 0x3d043175bd9e6d21U, 0xbd576e6f3ded4cbbU, 0xbce2f7173e124de0U,
  0x3d936c6ebe53fb4eU, 0x3e152ee3bdf46021U, 0xbd8e14e1bcfc29cdU, 0x3d9b1e563d97dd89U,
  0x3c96c3dd3dc7a1a7U, 0x3dd737a73e39f8bfU, 0xbd3a07ccbb69ed6aU, 0x3d84a15bbcd647b1U,
  0x3e947158bd609d88U, 0x3da21324bd60894cU, 0x3e23af1e3e6b7d08U, 0x3dee78b5be3df46bU,
  0x3e112e78bdbb965eU, 0x3cba65cb3e3f9e1fU, 0x3d7a9e633bd76f59U, 0x3d3b8e1d3d8d005bU,
  0x3e0fe0a3be0d6759U, 0x3e22897c3c0fe37dU, 0xbdda4fecbd740884U, 0x3dbc2043bded3614U,
  0x3dbdea76be03d881U, 0xbc3c47573d273d9aU, 0xbd3b621dbaefb35aU, 0x3db2fed8be08f0c4U,
  0x3cb2d2723de635c2U, 0xbd9fc4053c895ecdU, 0xbdb8ccc6bd2177ffU, 0xb9c152c5bd910d7dU,
  0xbdb7cb5c3d81af3eU, 0x3d6470423d74e2baU, 0x3e1f7c38bd6e2fe6U, 0x3cc894f3bce56f7eU,
  0xbcd943edbd122437U, 0xbde244703cd18cc4U, 0xbc0746d8bdc922caU, 0xbc83dfd6bd1da674U,
  0xbd2a770cbd33a36eU, 0x3dd9d844bdb0b7e9U, 0x3c04280dbe180f88U, 0xbd09ffeebce039d6U,
  0xbbda3c44bd73b3fbU, 0xbcd89a88bdc701d9U, 0xbdda24933c4c2d25U, 0x3d21ed973c93f342U,
  0xbd1928463e2a00c5U, 0xbd89771bbd846c9fU, 0xbb078dc63ca88224U, 0xbb02f7633d18b29cU,
  0xbe23fc98bd8404feU, 0x3d193768bdbf6db1U, 0x3d447af33cd3647bU, 0x3d9b05b93d89ac8fU,
  0x3ca3c6553e21e5aaU, 0xbdb2cdba3d0edbf5U, 0xbd58ac44bd5eeb0cU, 0xbd3a42173cb9ed0dU,
  0x3d3edf933d07d516U, 0x3dc973783d9962beU, 0x3dd426f63ce80e4fU, 0x3cef6d5bbe08d6ddU,
  0xbc9950de3c3c92f8U, 0xbcb2c2163c4cdc7cU, 0xbc8aa82e3e027fa0U, 0xbdc0bc0e3d5fb84fU,
  0xbd0f54363bd0430aU, 0x3c69f8973dd4a9aeU, 0x3e0d83d43b175c84U, 0xbc91e26cbbb5a9e9U,
  0xbd339968bde95e33U, 0x3daa90093beed357U, 0xbd61e3fc3dadcc93U, 0x3e1241a6be6fc0f5U,
  0x3b998eed3dcf8bcaU, 0x3dc3faa4bd59ce7dU, 0x3dee32a73e27085aU, 0xbd0213963e11be4bU,
  0x3dc01b30bd62f678U, 0x3de49f69bcad12a9U, 0xbcd4c587be085f71U, 0x3e04ef38be769912U,
  0x3df03980bd2e8277U, 0x3cab3d923e265feaU, 0xbd1a731c3c78ef16U, 0x3d85b0d1bd058efbU,
  0x3d143dd03db2c5f7U, 0xbd5657e9bbf974e1U, 0xbddb90e9bdf5864aU, 0xbda810c3bcf7ba9cU,
  0xbb5ebac93e12d5acU, 0xbba3bcbe3e020066U, 0x3dc7bc35bd1d3afcU, 0x3de3ebf6bdb4b630U,
  0xbc06ee8d3d6fa257U, 0x3d38e6db3d91974cU, 0x3d76c495bd67d798U, 0x3d0ee2913b29e524U,
  0xbc9e11763d0c8bc3U, 0x3dac9555bb348d1fU, 0x3df9076abd20a83eU, 0x3ce3a1333bcd09acU,
  0x3c1874db3da05c4eU, 0x3e131dd1bdfb5895U, 0x3d5310c7bcc9736fU, 0x3c1319943d370a81U,
  0x3dfaf13abbfe8de7U, 0xbb19bed7bdcf6eaeU, 0xbd2f9af8bde6ac61U, 0x3de7724bbe04c1a4U,
  0xbb65b4093d9a44c4U, 0x3d0cc3eb3da770f9U, 0x3d80b3443ca2e120U, 0x3d28a516bd27ed6fU,
  0xbd7b08413d0828deU, 0xbc53ef18bd0816bfU, 0x3cb364aa3e06332fU, 0xbb147613bd8f5edcU,
  0xbc85b2b1be236787U, 0xbd5e102a3c18d3cfU, 0xbc00485bbcacb986U, 0xbd362963bda23fabU,
  0x3d94a0813a2811f6U, 0xbe1383133c06cbb6U, 0xbe7382b7bd1d1389U, 0x3cf545cb3d9acdaeU,
  0xbcc35a713d706cabU, 0x3e243b513b1ab17aU, 0xbca62c39bdba3ba9U, 0x3de7d27d3cd37d4aU,
  0xbcd19b243cf4dc80U, 0x3b486c0dbd019c31U, 0x3e2b0f913e857460U, 0x3e0b7276be487bc7U,
  0xbcddda27bdb6a9dcU, 0x3df612733e124001U, 0x3e68696b3de355aaU, 0xbdb82e933dba3480U,
  0x3de769a4be22d019U, 0xbd91a7f2bdbf1c42U, 0xbe369d9b3b93e9bdU, 0x3dcf37febe222dc1U,
  0x3e1e4861bdd2a754U, 0x3d9308b0bd09e1e6U, 0xbd3e42fa3e20a338U, 0x3d9c4f45be01ae68U,
  0x3c99435a3dd968beU, 0x3daf74a43b9c8b09U, 0xbdbee5a0be20fa68U, 0xbc3cb382bd99f134U,
  0xbc5fa0893d93dba5U, 0x3d240ca73e1c7b74U, 0x3c9b61383d1fa822U, 0x3cf65914bdd81898U,
  0xbdeb27d2be4141fcU, 0xbd8275063e09521eU, 0xbe007ac1bd595fc8U, 0x3e30aefe3dd07e35U,
  0x3c55299ebe981dc1U, 0x3e1b00d1bdf657a9U, 0xbb77514f3d89ea89U, 0x3d8cb092be32f113U,
  0x3dd1e4f73dac7d1bU, 0x3e5041a4bdb56428U, 0x3e4cb0cebd84f4e8U, 0x3d3e19e53ced415bU,
  0x3d84a05f3cdab7f2U, 0x3c0341ce3e1b73e1U, 0x3e2d372bbbfca5ebU, 0x3e359bf4bd4473f5U,
  0xbdb10d63bacd4f17U, 0x3d767401bd5761b1U, 0xbb2e9d72bdb948bcU, 0x3dc9a7643e05839fU,
  0x3c55f03c3ddadd83U, 0x3cc8a497bd8eb74cU, 0x3c95cbb13e311566U, 0xbe1fed21bd7d3087U,
  0xbdfa911abe31c4daU, 0xbdf7f4df3db4774dU, 0x3d76417f3d87f8e3U, 0xbe00b603bd517316U,
  0x3ccc79543dd67cbdU, 0xbdccc983be1eed91U, 0xbe377f8dbe209756U, 0xbd9776ffbb7f8c71U,
  0x3bb304b93d81410dU, 0x3d9c4aecba853475U, 0xbc26e7f3bdb5eedeU, 0xbd4ce830bdb8a62bU,
  0xbd30219e3dee789bU, 0xbc58026ebd7ebee8U, 0x3e427c093dba02a5U, 0x3e46e5a0be74c857U,
  0x3d5484763bbdc176U, 0x3e1b2faabdc2a4d5U, 0xbd665a1b3e0c9b25U, 0xbdd3cb2abd400ca9U,
  0xbdc026803d82322dU, 0x3d4fd92dbd4b18f6U, 0xbd2868143db01d7dU, 0xbdac0367bd70d3bbU,
  0x3dbc31743cead019U, 0x3d1ccbfc3d297dc2U, 0x3d9043493daeb59cU, 0xbd50095e3d48a629U,
  0x3d737eee3cfbcf5bU, 0x3c910d3dbe307ac7U, 0xbd83c02cbd16bd98U, 0xbdbc4f4ebc59ad42U,
  0xbd3a61213d3fbb5dU, 0xbdd4ad97bc4329b3U, 0x3d9b1db73d724376U, 0xbcd7a44abdf674fdU,
  0x3e1a2e913d139571U, 0x3df4c398bc5c5841U, 0x3e290ad03e6a9e63U, 0xbe2af6f8bcfb2be3U,
  0xbdd00c413dd5239cU, 0xbd46b0ba3db8bc01U, 0xbd00577cbe921fe6U, 0xbd07ea283e07299fU,
  0xbe66968fbe13edd8U, 0xbdb1ddf83ea9461dU, 0xbd94c2fb3db40076U, 0xbe99d6973d54c70cU,
  0xbd813fd7bda22d3dU, 0xbe606890be089bf4U, 0xbd8e28053cedd4c4U, 0xbdc760d43e50b6d1U,
  0x3e861adb3dcbd6d8U, 0x3d1b68303ddd7c7cU, 0xbe39156d3e368fbcU, 0xbc0ade84bdacc0eaU,
  0x3ea49aefbe684c7dU, 0xbd31edbf3da373a1U, 0xbe0e281fbdb412b0U, 0x3e8e68e73e19bf20U,
  0x3e0315053e234adaU, 0x3e19d0813d8b9c55U, 0xbe1058febe7d51b1U, 0x3e4bb52bbe0a83a8U,
  0xbd433a56bdd2329bU, 0x3defbc943e3a0044U, 0x3cb4b9613df14f5eU, 0x3dc8c2083b269792U,
  0x3bad01053e680306U, 0xbd97db93bdcb9904U, 0xbc8665863e0dbc9dU, 0xbde1460d3dc0ee24U,
  0x3c93ea25be390cbdU, 0xbddecef53e49e03aU, 0xbe56827fbe13c56cU, 0xbddd3b363e27d129U,
  0xbd7518fb3e200f4dU, 0xbd5f8f0d3ddfbfadU, 0xbdd1e31dbe042d08U, 0xbcf7a6f5bd8f1fd2U,
  0x3cd47267bcb72500U, 0xbe03f4393e1807b5U, 0x3e3ba3353d745da4U, 0xbdba64e63d02718cU,
  0xbd91f6adbd0ddbbaU, 0x3c19658fbbd5752cU, 0x3dced2c1be0ba4beU, 0xbd838463bd0863b6U,
  0xbc77e718bdc2e6a6U, 0x3d96a77d3d9b65f1U, 0x3d95c5093d34d92fU, 0x3e715d403dafb978U,
  0xbe189c5f3d666fbfU, 0x3e534e24be2be0d8U, 0xbe0fdbd1bdd8b907U, 0x3dd2f4293dffdb10U,
  0xbda22102bddfd9c6U, 0x3c0f159e3e1e97e0U, 0x3c7733a93d55aa7dU, 0x3e05f7373da89861U,
  0x3deff15dbe380d91U, 0x3da332983d41079eU, 0x3dedd89cbc9faa5dU, 0x3e043f8ebc8ef704U,
  0x3dcbfd02bd463a9bU, 0x3e3ca209be11804aU, 0x3d9453efbcda584cU, 0xbc52864e3d56c073U,
  0x3d84ddc63e1afbd7U, 0x3db524443e41e074U, 0x3cae1848bd886e76U, 0x3e884d24ba9fc5d6U,
  0xbdd770cabdd10a0fU, 0x3dc09cb2bdf4b624U, 0x3ca4d6eebdd76f53U, 0x3d9695853dd189e7U,
  0x3acaa4d9bcf47895U, 0x3def31c3bda2565aU, 0x3e25ee84bd59b08fU, 0xbcddad5dbd811982U,
  0xbdda190abdb5fcc0U, 0x3c9aee543ce2cd45U, 0xbde9a2c33e0cd59eU, 0xbd668a153c954a09U,
  0xbcda6b17bcea1efaU, 0x3d4769bbbe028d3eU, 0xbe55334dbdbdd64aU, 0xbd839d1e3d97236aU,
  0x3d14ef82bdfbe59fU, 0x3de12d733d7278ffU, 0x3e012072bd7d1912U, 0x3e018970bdcb787eU,
  0x3d95dfbd3d37e010U, 0xbdc3932bbea32585U, 0x3cdca1dcbc77e702U, 0x3d92d9c9bd7d6925U,
  0xbb9f6890be1f7013U, 0x3e72e65bbdc2bdaeU, 0x3db8f8d23e5554bfU, 0x3d90ae833cd6f962U,
  0x3d5c92a7bda47a07U, 0x3dea4836bdf7c6d0U, 0xbd9c248cbc09a081U, 0x3d37d17fbce88709U,
  0x3d0a004abe3ebf86U, 0x3d39a8d93d8fbf29U, 0xbcc6577e3dddfbb0U, 0xbd7ce778bb8b8593U,
  0x3c9de9723d181467U, 0xbe4b04f0bdda3a71U, 0xbd4fcd3bbe082391U, 0xbe20a4ccbc1e54eaU,
  0x3c3220e33ce35985U, 0xbd4257ffbd329f43U, 0x3d856c043d45e00bU, 0xbdcc9ac8bdbb5225U,
  0x3d6f48873caf23c6U, 0x3de3d7d7bcd0fa2cU, 0xbda8cb113e1e8050U, 0x3d20cf063d8ae9e3U,
  0x3d4598b83de99fbdU, 0x3c1f156dbd428a96U, 0x3c9f276fbe0e59c7U, 0x3d1797ab3db40db2U,
  0xbe572d52bd4b0549U, 0xbd5329873be089cbU, 0xbb86fe06bbfb2cf4U, 0xbd1b6d3a3b6c3ed8U,
  0x3d4351cfbd5c90a6U, 0x3c432b2dbdee1a4cU, 0xbd505a213dda5829U, 0xbc2fc4fdbb4905feU,
  0x3c55a9a5bda84842U, 0x3e1133ef3dfaff02U, 0x3d4cbb5d3ca95998U, 0xbc76efe2bd359692U,
  0x3e1982e7bdcccc29U, 0xbdf655743d518888U, 0x3d9d0100bb5ecb2fU, 0x3d5e6ee43d2ff872U,
  0xbc8c0dcd3ddff4baU, 0x3dcbd01bbdfa57b4U, 0xbd37e1233da9ffd4U, 0x3db4cebe3b72e066U,
  0xbdde764dbe07a15cU, 0x3d0910b23c657a0cU, 0xbe087f56bcaaaf27U, 0xbe1031b23d53da9bU,
  0xbc873167be02283cU, 0x3d916f953babb91fU, 0x3d5145abbe98fe88U, 0x3db315e33c1d958aU,
  0x3d1a8da53dafb41bU, 0x3c8c26a1be191de9U, 0x3e3498d73e0ba7a5U, 0x3df755b3be4923a4U,
  0x3d0f15e6bd6560d5U, 0x3db4123abd00ab73U, 0x3d58bbba3de32f1aU, 0x3c8b83993cb6f6bfU,
  0xbd34f7febcd75f53U, 0x3e37ea6ebe41590cU, 0xbd90782abd3513d2U, 0x3d84a64dbe3c79c9U,
  0xbd9a2748bda3e19dU, 0x3d2904543da6b4dcU, 0x3c46a47b3dd8903fU, 0x3dc148a6bdbe80e7U,
  0x3d8174383ca393b5U, 0xbdfbcc5fbd977160U, 0x3cf99229bcf54860U, 0xbd0a1576bcaf2435U,
  0x3e01cf933ba6752fU, 0xbe2fa3363d9d9f34U, 0xbd49d04d3e22dd80U, 0xbe546532bdbb8093U,
  0x3c831c0fbd7ef86fU, 0x3d823c623c6bd26dU, 0xbd8a31f9bbad4b18U, 0x3db8ad6d3e0b33b3U,
  0x3dbe7cc9bc53b83aU, 0x3a0f467f3d934176U, 0xbd6c5029bb8c67b4U, 0x3d135d623de1ff78U,
  0xbdbc12683c6efef0U, 0xbd2409bd3daa9cc9U, 0xbe5dbce3be0da832U, 0xbd6f7f3b3e3f916dU,
  0xbcdbe40e3db05522U, 0x3d0c8faebbd87cb9U, 0xbd62f65cbcb747e2U, 0xbe02b33e3b9808baU,
  0xba82128dbdae0705U, 0x3d916f8cbe3cc814U, 0xbc9871d83dc68267U, 0xbbc9c9f73d54220dU,
  0x3cbb6db33c2022d1U, 0x3d47f270bd171bf6U, 0xbdbc84f9bdb5d4d0U, 0x3daede3ebdc98308U,
  0xbd4f009d3dc57223U, 0x3d8c06323da57d32U, 0x3cc8d2e33df4da77U, 0x3e328a2d3d9544b6U,
  0xbc4e9e4abdd50baeU, 0x3d333b46bd652dbcU, 0xbd89e542bd62b6c8U, 0xbc8603683d62efd2U,
  0x3d3f4eadbddbca07U, 0x3d49a41b3cabe3e7U, 0x3cbd06cbbe151d33U, 0xbbc513a0be0658b3U,
  0x3d51c7833daace01U, 0x3e272d6bbe1e603dU, 0x3e8d0e813e14c080U, 0x3e518a27be306bc3U,
  0x3db5d5c1be3f6785U, 0x3b81959f3c9f2417U, 0x3cecda4e3e13492aU, 0x3d9757273db85bf9U,
  0x3e4dd4dabca78473U, 0x3df439dfbd38d41cU, 0xbd978e7f3ae4a2d3U, 0x3da6d0673ab6b6e0U,
  0x3de57a65bd08eb4aU, 0x3da1651e3d691ab1U, 0xbd9e7dff3e52b8a0U, 0x3dda3176be19561aU,
  0x3d1cc8853dd0dedeU, 0x3d5bdad2bd8dc2f0U, 0xbdd19624be0f99a5U, 0xbd3264293d745f27U,
  0x3d9e30e5bcdb9829U, 0xbdc945063d7935b7U, 0x3c9983c93d505ba3U, 0xbe49fdf8be35a512U,
  0x3da511c5be0fd586U, 0x3e821a4dbd2a9a4dU, 0x3d039a983e1529feU, 0xbda7d27ebdbbcfc8U,
  0xbe2023d63dc8ab8fU, 0xbd2aa3ad3e404e18U, 0x3c3c7bdabe20ffd2U, 0xbd62b2d23e16be12U,
  0xbe5b507ebdfd6851U, 0xbe81bcb43e218fe8U, 0xbdb6be493d495b1fU, 0xbd824faf3bdb3d96U,
  0xbc87d434be6d57beU, 0xbc958115bd359937U, 0xbe401aca3bb7af06U, 0xbdba8b1d3ddb5c30U,
  0xbd397e233d770739U, 0xbcedaf033ca8fcc7U, 0x3bd253d73e531f68U, 0xbb2ef029bcde3a19U,
  0x3e0ecc4cbe000cd4U, 0xbcea7e38bd9a16b9U, 0xbd163b97be156adfU, 0x3daf65ba3e5a29a4U,
  0x3de881573e0b0ad4U, 0xbd1a95633ce9ee85U, 0xbde81e22be2867cdU, 0x3dd9da69bd6c4a59U,
  0xbcb3ac4abe2055d4U, 0x3e1f50823dd50b8cU, 0xbe16454d3db8f260U, 0xbd1a796dbd47e2f6U,
  0xbe0f3fb0bd2b8a35U, 0xbcca5bb13ce4c864U, 0x3dbadff7bd1744f8U, 0x3dd37529bd404a53U,
  0xbb65d9a1bd42da40U, 0x3d4e60e2bd253867U, 0x3dc81b793d02ed60U, 0x3e48436bbe4b0ca6U,
  0x3c7d1febbe564d6aU, 0x3d86450a3d0dd02eU, 0xbc9ad27f3db82081U, 0x3db8bfdc3dafbff5U,
  0x3c1d222abd947989U, 0x3dad084c3c13528fU, 0x3cc1fcb33c365f5eU, 0x3ca8c52abc45719fU,
  0xbcae1488bd8e0f03U, 0x3df191a13c89c9f6U, 0xbc03ab5c3e01b8e5U, 0x3d85d0443e0f7291U,
  0x3d316b5a3ca08b3fU, 0xbd3289c83d1f7474U, 0xbdb1d4d7bdbee70dU, 0xbdca6f63be018aaaU,
  0x3d8f3afb3db9a8ebU, 0xbd27aca2bd26b7a1U, 0x3de9f35c3e08cd7fU, 0xbcfd83c3bcd10e8cU,
  0xbcdc2e59bda7014fU, 0xbcb620de3dd630d0U, 0x3d8e7203bd6175f9U, 0x3e21c9663ddbbfd8U,
  0x3df18a5fbddffe7bU, 0x3e67a0ce3dc13a93U, 0x3d4f77b6bd09c04bU, 0xbb6ce36ebbe257a4U,
  0x3e1aae293b8624baU, 0x3d9a73c5be51fa14U, 0x3dc89489bcf1cf10U, 0x3cd83a753d889ce2U,
  0x3e4928603e28ae6eU, 0x3deeaaaf3de0411aU, 0x3d3a263abe3a0e98U, 0x3e336ec83ce38515U,
  0x3c1953c4bd7cb457U, 0x3b709f8bbd7a561aU, 0x3dcee304bdedd08cU, 0x3d0c681c3c958d8aU,
  0xbe0f1ed63d643165U, 0x3dcf21e5bd36d818U, 0x3c21248b3d81fc42U, 0x3db4095dbe2e55c6U,
  0xbd5fa551be062eb0U, 0xbdcd204ebd9759b7U, 0xbdef907f3e15e1bcU, 0xbd58d3433d8436deU,
  0x3da597663d5bc20dU, 0x3b6829c2be0076b2U, 0xbdcdb302ba864e41U, 0xbddfa90f3cf6fcfbU,
  0xbd9b0337be248ab0U, 0xbc7e1bc83cc13524U, 0x3d8fb0debe3bdd64U, 0x3dfe7cf4bd3716a5U,
  0x3ccad150bd4e7bf1U, 0x3dbdfc20bd723f61U, 0x3de5f5503dfcf2c8U, 0x3e1237d7be58e1ddU,
  0x3df011883b367717U, 0x3d9848a93e49f82dU, 0xbd89dbbc3db10d05U, 0x3c9cf2463dc221dcU,
  0x3ca268aa3db67aa9U, 0x3e258f443ca80c85U, 0xbe1cbaccbdacd557U, 0xbe157502be16bca1U,
  0x3c78c419bd20622cU, 0xbb59ae343de9a917U, 0xbe1331bf3cb6e454U, 0xbc547b7bbbd4f6ebU,
  0xbab9ccde3d99a306U, 0xbdae99ff3af73278U, 0xbce98ba1be44bc93U, 0xbd9952493c8dc531U,
  0xbdb6335fbc40fb6cU, 0xbd849184bd42b5aaU, 0x3da4d49d3d0b3376U, 0xbd4b8d2cbcc0ca16U,
  0xbd57b86dbdb1bc38U, 0xbe1cc22f3deee04bU, 0xbe043dd73b67b3a1U, 0x3cf1ce263e35c82aU,
  0x3b5acdf2be091400U, 0x3daff97d3d64e10cU, 0x3dea5d8f3d85bffeU, 0x3dd956c2be0dacc6U,
  0x3e04bc3a3d6d54c0U, 0x3e3f5553be2e6175U, 0xbb0ee89cbe49e5c6U, 0x3d46a73d3c402194U,
  0xbc6842be3e461124U, 0x3cc638603ddf620dU, 0x3dbe2737bd1cfcf8U, 0x3c159d00be2ae0b3U,
  0xbd664d75bcc563edU, 0x3d98f9aabdd2a61fU, 0x3cddaf11bdb3e2e6U, 0x3cacec573c9c5a5eU,
  0x3de1aa533e152ebcU, 0x3da456bebdb3c001U, 0x3d5538533d35cb26U, 0xbe0c5292bdf7afb2U,
  0x3d31a53abeab01deU, 0xbe0dd4fabc261022U, 0x3cf0f532bdbfe10cU, 0xbe061de4bbd9144fU,
  0x3a314afb3d78e34cU, 0xbdc50307be3aac40U, 0xbd425a08bdd68f48U, 0xbbf6cf353cf15187U,
  0x3c84d1ec3c87a05cU, 0x3e2d687d3cfcc971U, 0x3df4a4713df7d655U, 0x3d46dbc53d6e11f3U,
  0x3d82ae19bbf8af6eU, 0xbd05cd0abdf22747U, 0xbd54e89c3c1ab28aU, 0x3ca8be24bcea263aU,
  0x3d9171c6be1f1003U, 0x3dc581903dd694e9U, 0x3d55d8f5bd84ff91U, 0xbd2ba0e0bde26c00U,
  0x3da24f33bce9a318U, 0x3cb9d6a1bcf7aef0U, 0xbd06d5fe3d7cd956U, 0xbd45bd7f3d178472U,
  0xbd5e9462bdc828ccU, 0x3d92387d3d2592f0U, 0x3da4951dbde1d610U, 0x3ca31b4a3c11e1b5U,
  0x3d76aa943d9171a5U, 0x3dd3c7dd3ddfb986U, 0xbd0ed1f9be2a2a83U, 0x3d93696fbc5ca364U,
  0x3d027a39bcc2fe5cU, 0xbbce8a963df7700aU, 0x3dc4da983c4f7693U, 0x3da1d1f3bcf1ed4eU,
  0xbd17562cbaa08988U, 0x3d5f9e9ebb5bf58eU, 0xbdaa04c0bd5ad7c4U, 0x3e03c762bca2b1a3U,
  0x3dd34e93bdba71d1U, 0x3e08b01cbd18cc7cU, 0x3b865b38bd7c6f47U, 0x3de8c9f7be2671b0U,
  0x3c6b0d2a3dc23bd9U, 0x3deabba6be163c3aU, 0x3d77f44a3e048860U, 0x3dd8e3db3d870650U,
  0xbb7145e53d8ef1a6U, 0x3dab10c23def2bc3U, 0x3d2b1000bde4aa81U, 0xbd598b7e3d506323U,
  0xbd30de903dd6bcf6U, 0x3de5696dbb883e55U, 0x3d84f1b1bdbeac00U, 0x3d2d393a3e25ff21U,
  0xbd21385e3e4a8267U, 0xbd9dce3d3bd8dc46U, 0x3c3d191a3cca8abcU, 0x3b2d49f8bd983ad8U,
  0xbde702e6bdc4ad97U, 0xbd5d80abbb616175U, 0x3d10a42b3cb8abebU, 0xbd529c163ce5179dU,
  0x3dd0a4c0bd1dcf75U, 0xbd36b2e5be13992cU, 0x3e6b2f50bc068c98U, 0x3e4b550dbdff157eU,
  0x3def7a653e67148aU, 0xbe0485f2bca580c9U, 0xbdd5e7213e3bf030U, 0xbe089dad3e0d9734U,
  0xbdd2653abdcb9899U, 0xbdef35b53d594c47U, 0xbe6c9d73be7bf174U, 0xbdf9b3f83dce6a4bU,
  0xbdec9f493dad1520U, 0xbd1ab3b4bd38d23bU, 0x3ba5e323bdca67acU, 0xbe2e647fbe0c4205U,
  0xbd8f3c873e26437aU, 0xbde281993e1ec947U, 0x3e4517fb3d86f909U, 0x3d3a163b3e1c5eddU,
  0xbe006e793df382f2U, 0xbd9be9d9bd9029aeU, 0x3d98dcd5bdc0f340U, 0x3dcc73a93d3df4dfU,
  0xbda2aa98bcc626fdU, 0x3e5d25eb3dd09b0dU, 0x3d3aed6e3dca47cfU, 0x3e32d110bd806426U,
  0xbd1962eebdf86c7fU, 0x3e94f1a6bdf94d27U, 0xbdc68540be87db80U, 0x3c90ae833d4ae9cdU,
  0x3df48c4b3e5bc1ebU, 0x3e562512be0beda6U, 0x3d930f783e886433U, 0x3cdc9dffbdee4a93U,
  0xbe049d183e914609U, 0xbe019dc53e55dee7U, 0xbdbd39cebe0fccfdU, 0xbdb3916f3df48eb6U,
  0xbea2ec04be71871cU, 0xbe04c44e3e6e75a1U, 0xbe3530b63e6927faU, 0xbe3e72773c60c73aU,
  0xbddae1ad3cbef6ecU, 0xbe1c004bbe0c79cfU, 0xbc7f720e3d9fc8b3U, 0xbe6577fc3e4dd4bbU,
  0x3dec8e563d5a3e25U, 0x3ba868503e4a79feU, 0xbe221b6f3dda8aa5U, 0xbcaa985fbe310a67U,
  0x3cd11512be655880U, 0x3d4ff9853dd7ef47U, 0xbe11a73abd44df55U, 0x3de1fade3e1c7abdU,
  0x3d820eb53dc8a8f5U, 0x3df9382bbdcab240U, 0xbe4b3e36be39b004U, 0x3e5e16f6bdb842eaU,
  0xbda0f75ebe21a2e2U, 0x3e804a453daeacd8U, 0x3d2f42823e0c419aU, 0x3e83b78e3c04ea50U,
  0xbdaca2f7bc910d25U, 0xbdd74ffcbd74e090U, 0x3d2d2c713d3601f1U, 0xbd87ed9e3e3f0b30U,
  0xbd000ecabdb184dbU, 0xbccdbde43dd4fdccU, 0xbe6d4340be80db1aU, 0xbdd7eea83e1127ecU,
  0xbd64ae6a3dc520ccU, 0xbdfc7391bd750083U, 0x3c99a17cbd629d5bU, 0x3c74b014bd44f273U,
  0x3dfc45063d0a8763U, 0xbe21bc923e87ada5U, 0x3da0b04a3d0c59a8U, 0x3ce1a9113e142d84U,
  0x3d2449f53d8eccf0U, 0xbd819d0e3c7edd1bU, 0x3e774532be31fbc4U, 0x3db081883de10c64U,
  0xbdc66e26bd143e2bU, 0x3d297f363d948372U, 0x3da7f1943e474375U, 0x3e2509543d8fb375U,
  0xbde0dab4bc18ad08U, 0xbd0f6350bce19dc2U, 0xbcb24251bda7ed7cU, 0x3e1305293e09f06eU,
  0x3c21f8e53cfac169U, 0x3e4f41fdbd40e3b3U, 0x3b495d683de944baU, 0xbd88ea41bd340dc7U,
  0xbd0fa14f3e3f78d7U, 0xbd3738f33ceaa618U, 0xbc896952be26737fU, 0xbdd1886a3da891c9U,
  0xbe2f4cf7be150b9aU, 0xbdba1a2b3df11b63U, 0xbe1b3dc23e177983U, 0x3d24fc44bd04c8fdU,
  0xbdb8eb06be2bc625U, 0x3c78eb47be3ce0b3U, 0xbba191a63e5a4535U, 0xbe2c9b863e07adb8U,
  0x3d42dee6bcacb9feU, 0x3d01776f3df683e8U, 0x3c3e1a063e150d89U, 0x3c4652b83a60be57U,
  0x3e17b34ebe76367cU, 0x3c37de143d1296efU, 0xbdda42fbbc934dd3U, 0x3d2795be3dbb626aU,
  0x3d3fd5463cc2af60U, 0x3d512b35bdb899a4U, 0xbd5f3cefbb41db96U, 0x3d55acecbd5436f5U,
  0xbdf45b75bdeca185U, 0x3d01821c3d65d53eU, 0xbd5b292cbd2868e4U, 0xbbc124f03e04f2f2U,
  0xbe630b80bdf9738dU, 0x3d86804e3e0e6afcU, 0x3cb6a3f1bc63cc4fU, 0x3de9c8703d6cb1e7U,
  0xbc5e01563cdb2b2dU, 0x3dc85687be3ac055U, 0x3d972b823e1d4277U, 0x3da6c7d3be314c20U,
  0x3de4605abe2f056cU, 0xbcd6ebf53de7a7f3U, 0x3dc4efec3e159b4bU, 0x3ddc3d803d0fc858U,
  0x3df500a9bd8f1e37U, 0x3dfabb85bc21583aU, 0xbdbd676cbd848445U, 0x3d86504abe08c241U,
  0x3db16d1cbdc879f2U, 0x3da864813e4ab713U, 0xbe2dee5d3e80e398U, 0x3d785202be2a8d02U,
  0x3e6063fb3e1a6c79U, 0x3df0526ebdc42773U, 0xbd3a46a1bd93fe60U, 0xbd842e5abd04472aU,
  0x3e2252e23dd7037dU, 0x3de8a85a3d8290a3U, 0x3e362fed3ce606edU, 0x3caa23953cbf675cU,
  0x3dbe4896bd537e24U, 0x3e0e7b6cbde57bf0U, 0xbbe1be483e4533dbU, 0xbc9f89b93c7de7e3U,
  0x3cef88ea3e4729cdU, 0xbe85363c3e215bfcU, 0x3c91f120be04bdcbU, 0xbdbb8b463e046774U,
  0xbe46fe4bbe846f28U, 0xbe17fc043e303409U, 0xbda99ef73e0682c1U, 0xbd45ba60bba2ae51U,
  0xbc9f5f32be2437b8U, 0xbd8fb9acbdf1d8deU, 0xbd53dc82bdbdfa48U, 0xbdc3d67c3e2fa992U,
  0x3cad78503dbe5f05U, 0xbc8471c13d8e00ebU, 0xbdbede873ddc86d5U, 0x3d432898ba8b1076U,
  0x3e310462be6e264cU, 0xbd460126bcf63e39U, 0xbdd603e5bdd614aeU, 0x3e478feabc36b17dU,
  0xbc8a84943e079db3U, 0x3e0d16e3bc880075U, 0xbe3ef015bda510dcU, 0x3e53d588bdc8bcfeU,
  0xbd6ca28ebe5c2d8aU, 0x3dff96c13e026396U, 0xbdf5bc903e0d56f8U, 0xbdae0ec63dd2355fU,
  0xbda3d0ea3d0bc089U, 0x3cd498c5bd92dcc8U, 0x3dc1ffbdbd451ffeU, 0x3c831e543d98d92aU,
  0x3d49b13f3c5b4fdfU, 0x3e31df33bdaa25e6U, 0x3dccb9e63c7ddde6U, 0x3e0d4f9cbd8a3c3cU,
  0x3e156f66bd8770b2U, 0x3d7d2cbfbba872cdU, 0x3db549453cb74464U, 0x3d8c263dbc43d332U,
  0x3d8c59763d272fabU, 0x3da027e2bdb4037fU, 0xbd660a8cbd8f23f6U, 0x3e13fbdcbd30f098U,
  0xbb871c76bce6686cU, 0x3e1919673de473eeU, 0xbc6e6ccb3ca5c6bfU, 0x3cd38624bd2a0a58U,
  0x3e1bbe033d81dc08U, 0x3d9b28c8be17fff8U, 0xbdeb7b2abdade5c4U, 0xbdb384ffbd68b37dU,
  0xbd4dd52bbcd89704U, 0xbd1cc9e23d8b8f21U, 0x3de6de623d6fbce2U, 0xbc8a0c74bd016446U,
  0x3e3ac763bc49d9c6U, 0x3deff64bbcba9337U, 0xbd4d1f693e674e87U, 0xbaa09f763d08b10dU,
  0xbc1d0c153e2b70b0U, 0xbc23f8713c5c28e6U, 0xbe196351be0f693eU, 0x3c8f402b3dc8211eU,
  0xbddbb72cbe21f93aU, 0xbd6211263e4999efU, 0xbc9d93393e206a3eU, 0xbddbc0af3d812e74U,
  0xbd8446fdbcefbc79U, 0xbd404b50bdc00f45U, 0xbdf183413d93b480U, 0xbdfd83273cd50c1bU,
  0x3d936b0a3d6564a7U, 0xbd98512f3d2256f6U, 0x3d8921b03c71e74cU, 0xbb890909be1f025fU,
  0x3dbc201fbdbb79b3U, 0x3ca983683d1ae687U, 0x3d2eb33d3b8e7a8fU, 0x3d63f43f3d094528U,
  0x3dd610cd3dd79f2dU, 0x3d2270513d8aa19fU, 0xbd9e0fce3d3272c9U, 0x3e2337e53de27d4cU,
  0x3cf9c33cbe130005U, 0x3e267d593d64649eU, 0xbcf9b9913b962611U, 0x3e3347d03db88626U,
  0xbd585eb33da04e36U, 0xba9c6bcd3e06637dU, 0x3de8e3843d131951U, 0x3d5589cf3d1b96e8U,
  0x3d91ee06bd522842U, 0x3e297e1ebcb8a198U, 0xbcb6c45abc06ed92U, 0x3cca72bc3b4638acU,
  0x3e03991fbd8e1287U, 0xbcdd964c3dcb1d34U, 0x3d6318653e2d761dU, 0x3c969305bc3a8011U,
  0x3a7cf6933ae7ad6cU, 0xbb40a3813dfba868U, 0x3d762d86bd9d4c0eU, 0xbb03f63dbb324fc1U,
  0xbd5261eabcf59fccU, 0xbc46c651bd8e13c3U, 0xbd66bc1b3cad0311U, 0xbd7692d5be30104cU,
  0xbcd7d23fbcc3018fU, 0x3dd310f0bde0dd6eU, 0xbca7a9aebdb59208U, 0x3db1c338bdb6d1efU,
  0xbdedcdeabdd4c0b4U, 0x3bce0a5d3d2ea42aU, 0x3e17ccb3bdfe0b5eU, 0x3d3a7dc03d2603eaU,
  0x3dee5ebdbd34a8f9U, 0x3df44128be0c877aU, 0x3dd124bb3e217bd5U, 0xbd0cb45cbe1a49feU,
  0xbdc377863dccdd9aU, 0xbd36cdd63e51e483U, 0xbdf3e56fbe3dd929U, 0xbe71839c3e151ffdU,
  0xbe0284a4bda2e797U, 0xbc3789053e16fd25U, 0xbdd116cc3d0883c4U, 0xbe472bf2be21d6a9U,
  0xbdde9c30bdd2aeeeU, 0xbd3ef281be04105bU, 0xbe169c293e2e475bU, 0xbe75aaf03ead2755U,
  0x3af5f5cf3e6bdea1U, 0xbe1c34163dc62aaeU, 0xbaa37bad3e3618b3U, 0xbd218346bdaa1de0U,
  0x3d4b9b20be4c2ff5U, 0xbdd6a11c3e149addU, 0xbdc8d6d4be2cfd82U, 0x3e0376a23e066f5fU,
  0x3dea41b93e0fe4d4U, 0xbd15e609bbc8fb06U, 0xbd285a03bd4d38f5U, 0x3e9c5122bdd61edaU,
  0xbd10df7ebe3681d1U, 0x3e57ab403e12a396U, 0xbdb847163d863062U, 0xbd3faf9a3d8c281eU,
  0xbc0b9f4cbd969741U, 0x3d165a7a3c2ff372U, 0xbd4e9164bda8e8f8U, 0x3d9cdf54be808ca6U,
  0x3dee91093d308d79U, 0xbd889535bde3947fU, 0x3dba323c3e01a1a4U, 0x3e15b522be0da232U,
  0x3db8dd2abd415325U, 0x3d8f65673d95bb12U, 0x3d0d1dbd3db90371U, 0x3e00025f3e1194f8U,
  0xbc25603ebd3f591aU, 0x3d2cda94bda62beeU, 0xbd1b747e3de77919U, 0xbd1cb1a6bdbc55e4U,
  0xbd1107f2bdc4e585U, 0x3cde7fe33dfdaf13U, 0xbce3b6d53da3e8a5U, 0x3e56b1cb3d8d2af2U,
  0x3cd5d5413df505c0U, 0xbd331569bcc5f96bU, 0xbdc3837ebc3371abU, 0x3d4eeca63dc0848bU,
  0x3dd94a0bbd57b53fU, 0xbe0406f8bd0ae2faU, 0xbd18b9d8bc9a5af9U, 0xbd2f160abc98a42bU,
  0xbd91f29d3cf8287bU, 0x3e0627d8bd5ffd44U, 0x3d5b0846bb2745cbU, 0x3d3f689a3d630d22U,
  0x3dc00cdb3e22fa20U, 0x3e17f5753ccc6e6aU, 0xbc843d85be3d1fb5U, 0xbbd632353d690a61U,
  0xbdc9e4cfbbe5ca7cU, 0xbd33a38e3de09b91U, 0x3d89888b3d03f589U, 0x3c6cc4c83db0ab71U,
  0xbbe55c713d61c04fU, 0x3e0743b1bdeb780cU, 0x3da767cabd7ce762U, 0xbd825faf3e2135d6U,
  0xbd570ca83d362bf1U, 0x3d99444dbdb0c48bU, 0xbc276ab2bd6fc720U, 0x3d0226873e314f21U,
  0x3bbc71c1bda7c28fU, 0x3cc6ec2bbdc3e2deU, 0x3dd6a6b33b4b6505U, 0xbc8054dabdacf348U,
  0x3cd415cdbce28384U, 0xbcda6f9a3b57bda6U, 0xbda19c9a3d346739U, 0x3de4431c3c4e023cU,
  0xbc51c570bcf3cf74U, 0x3d87f1b2bcd375b2U, 0xbbcdf413be14a286U, 0x3e96de7abd6c5066U,
  0x3d9c5c563e0b9cebU, 0x3d2886f93cbe6387U, 0x3c2c2e4d3e778160U, 0xbe2e58273e20c6b1U,
  0xbd192fb3be5014c8U, 0xbce9b95e3e680777U, 0xbdfeec6ebe0f7f64U, 0xbdd20eb43e204384U,
  0xbe10e88d3e0e9ce4U, 0xbe2052c8be2862f1U, 0x3d0057ffbc7a2075U, 0xbd8b994dbdaf78d1U,
  0xbd839ceb3e196e1cU, 0xbe44ca983e237a02U, 0x3df5c66e3a193bb4U, 0x3adc8b233e474a05U,
  0xbda6fc413d25efacU, 0xbe2f4c79bde2016eU, 0x3e305c1dbe02ac7dU, 0x3dd94d873dabe5e0U,
  0xbe1ae3febd807eafU, 0x3e7d73cb3d179f2bU, 0x3e0b547a3dae73e9U, 0x3e2bab2a3e463d56U,
  0xbe4c871c3d55b0eaU, 0x3e6868a5bdec235dU, 0xbe42ba34be2f638fU, 0x3e39ac393e165b3aU,
  0x3bd4f5a1bb51a726U, 0x3de3e25f3de0fb5fU, 0xbd7f21393dc6f364U, 0x3dc3d0803dfdc88eU,
  0x3d049fb6be7024ebU, 0x3e2c69b8bc4d0836U, 0x3bca149bbd21a2afU, 0x3d92038a3d10e551U,
  0x3e11d0493d827f36U, 0x3e0e3eabbeb2dfa4U, 0x3dc4f4993d67ede2U, 0x3d8f4f6c3dc68bffU,
  0x3cdcd69b3e0febccU, 0x3e1ace9e3d7df6c5U, 0x3e5a4d43bd88a6cbU, 0x3e5fab613ca7c8beU,
  0xbe1be9f6bdb45845U, 0x3dece57ebe1790b4U, 0xbcc1f178be1774c1U, 0x3d3ee1b33e080783U,
  0xbe1348f2bd8800c5U, 0x3dd6a7debd20f7f7U, 0x3c00b141bd0257fdU, 0x3e0edc38be35c0bbU,
  0x3cff881dbd755a9dU, 0xbe52e8da3d55ae0cU, 0xbe02486d3c830b15U, 0xbd3895c13df66e1dU,
  0x3ddcb6f3bd07f382U, 0x3a1d72c9bdf67ae5U, 0x3e782d33bddb6128U, 0x3e2dd9d8be715cf5U,
  0xbd2deafe3e58ff20U, 0xbd8f1b3f3a73ac7cU, 0xbda27bec3e5d4343U, 0xbe0a44e23e2b77b9U,
  0xbe31bfb9be6ccd71U, 0xbdb03d243e6ab81bU, 0xbe6f7344be9aa57dU, 0xbe5d09e03e0af03aU,
  0xbe5ba8113e140b3dU, 0xbe118ef9bc4eaac0U, 0x3d0ee9ffbe29864eU, 0x3c9a8fa6be780b63U,
  0xbd31839a3d8404aaU, 0xbe1bd58b3e34cc03U, 0x3e34ddd9bdaa910dU, 0x3dd26fd03df99042U,
  0xbe02b4e33e0ce7abU, 0x3d0f7f06be4fb4d9U, 0x3e4fc266bdb59f2aU, 0x3d01adb03de35ce4U,
  0xbe02d88fbde64491U, 0x3e5b48123e4ea744U, 0x3c48cc7c3e7d264bU, 0x3d1691893e5242f2U,
  0xbe61cad6be1464b6U, 0x3e98b26dbd8c0317U, 0xbd9d0fe1be0593c8U, 0x3daf60783e3ae811U,
  0x3dff04d1bd3b2268U, 0x3e0332953c778843U, 0xbdde88403deb8176U, 0xbd8ed70dbd899661U,
  0xbd9d59373e140451U, 0xbe10d6f63e12e268U, 0x3b3763d4be36e3a8U, 0xbe60b30c3e031a00U,
  0xbe73f90ebdeb7258U, 0xbda091c13e171c62U, 0xbba1240a3e05a330U, 0xbdb86f85bca69a6bU,
  0xbd65d6f9be21db67U, 0xbceb3e2ebdbec5d4U, 0xbde4ea743c83311aU, 0xbe2d99f23e193a4fU,
  0x3e0f3f643cee24ddU, 0xbdbbf1233cddd4e7U, 0xbe07b9203e253cf3U, 0x3bf5a223bd5b8b06U,
  0x3e85f286be310f60U, 0x3b091e543dc3c3aaU, 0xbd381fadbe129a81U, 0x3e2372ffbcaf1a69U,
  0x3de70d943d85dd1dU, 0x3e31c56d3e17d971U, 0xbe2415abbd9a136cU, 0x3e4f9327bca4bdf4U,
  0x3cbd0b4ebe35dec5U, 0x3dce1d873dae21a1U, 0x3d597c823de7799bU, 0x3bd380413dfdb258U,
  0xbe0e274d3d36e939U, 0x3e0d907a3dfde582U, 0x3cebc806bda4a389U, 0x3cfb60523cc20c83U,
  0x3c2935d63e0167c6U, 0xbc49a29b3d81f655U, 0x3e878f1abcccde9aU, 0x3e177a1bbd5ab734U,
  0x3e5810c0bd99592aU, 0x3e0fed24bd02cee8U, 0x3d3a16f63e0ea0c5U, 0xbc84c0663e151258U,
  0x3cea444abde0df07U, 0x3dd129993d0608d6U, 0xbd8d715dbe218e03U, 0x3e60f411be433422U,
  0x3e223372bc3afef9U, 0x3e2f483f3d8b4a11U, 0xbe5776113d9f5411U, 0x3c0e41b8bde8ebf3U,
  0x3d9558bd3e2b34b2U, 0xbd1886eebd996050U, 0xbc8dcfecbdaa1956U, 0xbd9784223d50f615U,
  0x3d849257bc7de25cU, 0x3d4677223d1119d5U, 0x3e4ce493bda5bb4cU, 0x3ac7d1513d797703U,
  0xbd9cd36fbdb269e4U, 0xbdd97a723dc9da34U, 0x3c9c402cbc1f2613U, 0x3d8fdc5fbd6153f3U,
  0xbcb33edbbe4909c0U, 0x3e3898a43d8c6d59U, 0x3bfb23123d7d3203U, 0x3c226db8bdb3cd2bU,
  0x3de8300a3e38ba81U, 0x3dd8d7b1be387893U, 0x3e058e4ebd8aee50U, 0x3c6f36e43d53ef6bU,
  0x3e62e7243da20896U, 0x3dc982a73e2ef200U, 0x3c5c745b3bf408b5U, 0x3cd259903d2cc642U,
  0xbc6563a3bc87cb48U, 0x3c9ec2efbe122aebU, 0x3da23d75bdf52058U, 0xbc52e2503db40500U,
  0x3d8af0cd3d6a0bfeU, 0x3cb6bd9abdfd2bd1U, 0x3db0462e3e030260U, 0xbd8375debe08ef79U,
  0xbb900fadbd7988d9U, 0xbe4cb734be1e3638U, 0xbce21b443b8e0cedU, 0x3cd0dc223d12737bU,
  0x3d6c5f333dbaba4dU, 0xbda1e13abd8d39cbU, 0xbe3141e4bda2aaadU, 0x3cf2ed633d3025d8U,
  0xbd36b86a3e2e3cbaU, 0xbabc36853db353ccU, 0x3e021cf4bdf90e3aU, 0x3db7c3663dfa48edU,
  0x3e1a6305bd97c7e5U, 0xbcdd6ed6bd7b14aaU, 0x3e29a3343de1b0aaU, 0x3dc0a4fcbe1770c4U,
  0x3e0cf3823df54d38U, 0x3d366dd43dfcb718U, 0x3d8529e23e241efcU, 0x3de558ba3da679c2U,
  0x3cfe32adbd3fcb6dU, 0x3e160a74bdd5291cU, 0xbc5db2b3bd835478U, 0xbd4011c6be475bcfU,
  0x39245ffdbdce5afbU, 0x3d618ab03d0ed9b5U, 0xbd7a8f803db07b87U, 0xbdff579abd78179eU,
  0x3cd68be83db03b2eU, 0x3da86019be421fa0U, 0xbddbcf42be482c7eU, 0xbdeef9d2bd97da5aU,
  0x3d20c4df3d4bc144U, 0x3d339cc93d9ef6a8U, 0x3dc2bfacbd72027bU, 0x3b2461b0be57498bU,
  0x3d4a21fabcb9cc8eU, 0x3e8d910abe5448acU, 0x3dc6e1743e3463b2U, 0xbcb5bbf8bdc86d31U,
  0xbe379cd43e0fb2ffU, 0xbe013ef13e150493U, 0x3cecdf7ebe35b200U, 0xbe4ba7873e24f367U,
  0xbe89b870bdf17abeU, 0xbe69eb853eb180ebU, 0xbe11470a3e81077aU, 0xbe14423bbdde464bU,
  0xbe22697ebe0994b2U, 0x3c94658dbe443c20U, 0xbde482d53dc42e7dU, 0xbc9e0d9e3e32733aU,
  0x3d41e5debc22de72U, 0x3d0c4c643d0cf41dU, 0xbe1ce7963e4dfbcbU, 0xbc0c330abe1fa162U,
  0x3dca6fbabe7677cbU, 0xbcdccef03d85ce35U, 0xbd1ba782bdfad689U, 0x3e24fc4f3dcd39feU,
  0x3dd20c4f3dc79e15U, 0x3e0ff22bb9b6033eU, 0xbe14a2b33d855e63U, 0x3e331a1fbc507205U,
  0xbdff3caabdfae53eU, 0x3e4a25b03dd1b4b5U, 0xbe3ca1a23cf4d8dcU, 0xbe1402cc3e299bd0U,
  0xbd387fe1bce5e02eU, 0x3ae426313da62464U, 0xbcd27029bd8e33bfU, 0x3dc1d74dbe441ef3U,
  0x3cbff30b3d9a2c69U, 0x3c000f87bda79fd6U, 0x3e1a7a723dbfca29U, 0x3e114ae4be034505U,
  0x3dc80295be38b5faU, 0x3dae7ab93d10c152U, 0x3d8d2814bcf72af9U, 0x3aca5a883da6c203U,
  0xbc919ac0bd7acb0dU, 0x3e42f708bdae80a6U, 0xbd18ede3bd450f9bU, 0x3e89c4dabdaa647fU,
  0x3d267c55bda0532fU, 0x3a1e32a93dddd28dU, 0xbe2a376f3e0972f5U, 0x3d981d693e320afeU,
  0x3a6772013e12b41dU, 0xbe030e7abdff3d4bU, 0xbd6b9cffbe49988eU, 0xbe667de03cee3102U,
  0x3d64f0073d02ef30U, 0xbe1a64bd3df85f01U, 0xbd9d9e903d94cdffU, 0x3be27be2bde03a41U,
  0xbd0a3b90bca4cb7fU, 0xbcba486bbdaf2d6fU, 0xbcb69768be3e7b04U, 0xbc6a7598bd3a76f8U,
  0xbe2ad1653d12143bU, 0x3b4d5d93bc402b02U, 0x3d9fd764bd791646U, 0xbd2c7abe3cc082d2U,
  0x3dc9a4f53d10b067U, 0xba868fbcbcdc1ff0U, 0x3deada67bd87141fU, 0x3caf5720bbd1d6edU,
  0x3e3fb7e43d447777U, 0x3d70863c3c087723U, 0x3c14629d3c83f398U, 0xbc7e5f71be406550U,
  0x3d187e3abd819350U, 0xbd4ff486bc762939U, 0xbc8fe1a0bdc8e8b2U, 0xbd97d946bcfee80cU,
  0x3c45cb683c970201U, 0x3daf48edbadd757cU, 0xbe2ae4453ddee40aU, 0xbd75479abd8a9918U,
  0xbe0378943a399110U, 0xbb4500e13daff6f1U, 0x3d250f563d4ce779U, 0xbda484a1bdb1497cU,
  0xbcbf5283bd17847dU, 0xbd9ae40abcbf177aU, 0xbe0d23bcbd398842U, 0x3d6bc5413dc1a8f7U,
  0x3d2cf2e9bb1ab2f6U, 0x3d76ab423e0ffa03U, 0x3dca5f13bdce6b3cU, 0x3dd3767c3d7e4178U,
  0x3da1e7f1bd90e993U, 0x3a37042e3e053b28U, 0x3d24ebeabd719740U, 0x3e381e4abd91b694U,
  0x3e45bed13b8e55e8U, 0xbd189949bcc4d091U, 0x3beb1ebf3e3b9e17U, 0x3c84321b3dab559bU,
  0x3da864aabe4deb40U, 0x3c0e0fd9bbb1c70eU, 0xbe0b7a42be50ad4aU, 0x3da09eadbcf42af9U,
  0x3d48b895be10db5fU, 0x3d926f7b3d918a33U, 0xbc7c4393be00a510U, 0x3cede704bcd28050U,
  0x3cd28a3d3c99de4cU, 0x3e02ae0abdc1e86eU, 0xbe67a201be5c10d3U, 0xbcedebde3ce99a16U,
  0xbd3b284d3d1226aaU, 0x3d0c79bbbc7bd056U, 0x3e153d2a3d3572c8U, 0x3b4d4d34be02509fU,
  0x3e2f48f7bd2674e5U, 0x3e43a9cbbd91cfb4U, 0xbdbc51e83d63884bU, 0x3d466075bd3c1dd5U,
  0xbe07cf223e84353fU, 0xbd626b9a3e482ac9U, 0x3d60d428bdcafc43U, 0xbdbc23e53e5c307bU,
  0xbe0671d5be1f8924U, 0xbd100e893e3ff1f4U, 0xbe07b8463e3754f4U, 0xbdeae1c3bd7ecba2U,
  0xbc8c6b80bdf98c45U, 0xbddb6effbd89c326U, 0x3db4055f3d14ef20U, 0xbddb58b33e2a6ea6U,
  0x3dd33768bc823fa1U, 0xbe163cb33d087d10U, 0xbdeb6a623de31d17U, 0xbe0af4aabda2a46fU,
  0x3dc51214be470cc6U, 0xbd75e2cf3d87e7d1U, 0xbdfe58e6bd9f11a1U, 0x3e03dc493d62f43bU,
  0x3d80b9093e18e4b9U, 0x3db8633a3ce4a7d7U, 0xbe100539bd8abe4eU, 0x3df0e50a3bd31a04U,
  0xbd339544bcc1dc5bU, 0x3e435fcfbc8ec99bU, 0xbce17ee33bfce7e8U, 0xbce035863e2bc76fU,
  0xbda740f43da458ddU, 0x3e00f5253e14ff3cU, 0x3d6b527fbc9910ffU, 0x3d28776e3ce7a5e4U,
  0xbc1df262bd1be20aU, 0x3e13b2eebe0190e5U, 0x39e89b463df227a6U, 0x3d885cf2be502fc1U,
  0x3e13aae1bc14dfacU, 0x3dbbefa43d402b3eU, 0x3d028edbbc7368a8U, 0x3d1213e73dccfcd0U,
  0x3dc0bfbdbde0d1f4U, 0x3dd4fe8e3d2d6c13U, 0xbd980c44bde3ae96U, 0x3db2cbc6bce7d55bU,
  0x3d7bf811bd226bbdU, 0x3c938e593db96d29U, 0xbd6d308cbd9f1102U, 0xbd81bb1d3bc7c505U,
  0xbc858b1a3e16181fU, 0x3c10f4c4bded9ef6U, 0xbe3ba156bdef9ee7U, 0xbe1673433c81923bU,
  0xbd2a4333bc9d70f0U, 0x3dd97cc4bb8ea124U, 0xbca799b93d6825aeU, 0xbdc73d933a3c2501U,
  0xbd84fa68bd32105fU, 0x3dec37913e0704e4U, 0xbd1ba61ebc337246U, 0x3d442c1f3da5b528U,
  0x3de216b8bda5a92dU, 0x3c1c7c44bccad8f7U, 0x3d36ce5fbc63a834U, 0x3dc480c6bd8bf40eU,
  0x3e3eef81bd7239a9U, 0x3e174d35be5d4de1U, 0x3d8b13c63ceb691cU, 0x3d1c2e833d80fd3cU,
  0x3d83274c3dce521aU, 0x3cb306fb3e106345U, 0x3d9d2ffdbd33ba40U, 0x3d0b05163cfebb34U,
  0xbe04978dbdd90f8fU, 0x3db3c968bcc88f1dU, 0x3dfbc7c2bd03acf4U, 0x3db1dc5c3dc01b7dU,
  0xbe51c74d3d92433fU, 0x3e0a3395bd8e0ee1U, 0x3df10c083e4e6ad6U, 0xbdbcdad5bd4828dbU,
  0x3c9d3a79be7b30c0U, 0xbdcb08ebbe380d3bU, 0xbe09ad3f3de61c71U, 0x3e0e9ff03d878fa1U,
  0x3db609f8bda42541U, 0x3d5bfff4bd8bdb1bU, 0xbdc1c96cbb697dedU, 0x3d56d8603e688775U,
  0xbda543003cb5142bU, 0x3e6d92e33d77c28cU, 0x3d7bd967bd8533a9U, 0x3e45e6e53d9a5266U,
  0x3d45e2d93c410185U, 0x3dd7a41dbd44f392U, 0x3e39eb373dba5737U, 0x3dc278b8be867202U,
  0x3e1788e4bda02d18U, 0x3de3969f3e23577cU, 0x3dcf8af43e341dc6U, 0x3dc9120d3d99d5d6U,
  0x3e0ebb08bd2d6b2fU, 0x3de0e198bd0fca1aU, 0xbdb0af2bbd6f210bU, 0x3da994dcbdddacfdU,
  0x3dce5029bda93800U, 0x3e2ae3de3dba27e7U, 0xbdc91e40bbb78dc5U, 0x3da983b8badb9334U,
  0x3e0b566e3e0d446cU, 0x3db81bbcbcb9266aU, 0xbdf487b6be6d33beU, 0xbdbb0d47bdd98ce9U,
  0x3df6fc153d4b2238U, 0x3c58c9ff3e31e8d2U, 0x3d23025fbd19b579U, 0xbd24e481bd93e992U,
  0xb8e77fa6bd6a6201U, 0xbe3aaa2fbc8a1c91U, 0x3da35ca8be32775dU, 0x3d3ac61ebda17e51U,
  0xbd134f18be60f66aU, 0x3d0ff6ecbe5fb0fcU, 0xb9f514893cf4f9e8U, 0x3c5c4e27be3becc1U,
  0x3e80c4c1bc3fb6f7U, 0xbc180434bdab39d1U, 0x3d1da30ebce1d300U, 0x3b8ac684bcdce9edU,
  0x3c86cf273b68625cU, 0xbd4f10193d27f08cU, 0xbc3f7bfd3daf0a8bU, 0xbc0a8478bdf7807fU,
  0x3d975db43d9bc060U, 0xbb9d7244bcda32acU, 0x3cbc1811be0bf152U, 0xbd74ad9c3daaa7d8U,
  0x3d51e6ad3da49894U, 0x3b257284bc5a428cU, 0xbd277e553c180bbbU, 0xbde471e8be0fa99cU,
  0x3c1da787bd394f0eU, 0xbd3e6af93d213c15U, 0x3cd10e053d0c1a41U, 0xbd9e08f73d94258fU,
  0x3ca1e8f03d90e805U, 0x3d357c693d3fe474U, 0xbd923970bdc3cacaU, 0xbd9c8dea3d36f338U,
  0x3c1ead92bd79a738U, 0x3ddf88163dedf2b0U, 0x3cb00bdabe4a301eU, 0x3e3a71acbcbc0e39U,
  0x3d509c273dcda3dfU, 0x3e29290ebe19eeb5U, 0x3e1b78e63dc8bc04U, 0x3d35bdf8be88df87U,
  0x3e019e96bdde60b2U, 0x3d26dbdfbd0aec8dU, 0x3db5f01a3e2e722eU, 0xbb1217c13dbb4d8bU,
  0x3d87bb0bbd7638b3U, 0x3dc4eafdbd34665cU, 0xbe04c9133d9c4219U, 0x3c85bb3fbd5f3515U,
  0x3d47e20cbc531f50U, 0x3d39975b3dbb60e1U, 0xbdb1b3273c1a399aU, 0x3e0c78e5bdd14ce7U,
  0x3d967fce3d6f9b54U, 0xbdb6256ebcd5c7d2U, 0xbe1ea75fbe3101fbU, 0xbd9206dcbe21694cU,
  0xbd59763e3da1670bU, 0x3c33126c3da5792cU, 0x3d2566823c26efdfU, 0xbde6432fbca8efbdU,
  0x3c998c5bbcc6aa2dU, 0x3d9525973d7eca06U, 0xbc77a8a9bd39f19aU, 0x3d64ac593db2988eU,
  0xbda4813bbcdadc7eU, 0x3e22627a3e11b72bU, 0x3e1716cbbd48fc8bU, 0x3d90096ebde759baU,
  0x3e4c222d3e308f94U, 0x3dc045c8be342167U, 0x3d7e49693d02de6bU, 0x3e14947abb8a331bU,
  0x3dad033c3e5751a7U, 0x3d044784bd78c9ffU, 0x3dd65b89bd1dbbaeU, 0x3dcf28a2bd3b470cU,
  0xbdf109debe497a45U, 0x3bcbcb0cbe17c87dU, 0x3d8e2d71bdb665baU, 0x3dbadb513d6b51a2U,
  0xbd28eb79bd345095U, 0x3dcf522e3c651f1fU, 0x3d3159ce3cb001d6U, 0xbcc16b9dbd2de290U,
  0xbe05419dbe146311U, 0xbdd6d3db3ccac885U, 0x3da9616b3d7683c7U, 0xbd6fbaa13d41ab47U,
  0x3ced22f13d103651U, 0xbd23e3d3bd8355c9U, 0x3c462c47bce7e45bU, 0xbe2950acbdda1e78U,
  0x3eeeaae1bbef7092U, 0x3d72abdcbeab0169U, 0xbeb8f9823d77ca8aU, 0xbc9c477f3c5880f7U,
  0xbe30a1843dafe395U, 0x3d8df2663d8f2ca6U, 0xbdb9b523bc2e5b15U, 0xbe336851bc012156U,
  0xbeb3be693e07416fU, 0xbe16c045bee28474U, 0xbf22fc243d60617dU, 0xbed45865bdfec12bU,
  0xbf0490d53c95783cU, 0xbd9460683e01b9c8U, 0x3c8a98983ef7f87eU, 0xbeb6e4113f3abd87U,
  0xbe0125d03db607ffU, 0xbef141c7bdf72d82U, 0xbe8db54bbd66e2cfU, 0xbf10fd723c823347U,
  0xbd9f72dcbe32ce63U, 0xbde72d70bd366e1eU, 0x3d487d183e604b7bU, 0x3c4355ff3cfe4e37U,
  0xbd38ea83bf18d2c7U, 0xbe09f701be1c62e5U, 0xbe3aee57be0593d2U, 0x3d3cd14f3e188cb4U,
  0x3b7c49403e491de7U, 0xbcf4b345bcf88d6dU, 0xbcf908e33d98bf63U, 0xbd1496103de45530U,
  0x3e08df413d91c42aU, 0xbc87b3edbd06b13cU, 0x3cd32d013d2d55d8U, 0x3e20169a3c8a2536U,
  0xbdd3fe72bd27fd31U, 0xbcecbdf6bd20b92aU, 0x3caa70bcbc11a246U, 0xbb952fb13d2e3719U,
  0x3d757b9d3cc4d3b1U, 0x3d6164a53d42e7a5U, 0x3c24af31bd4bdeb0U, 0x3c1027913da4d578U,
  0xbc29b24bbc73703eU, 0x3cb7f6d73c35cf96U, 0x3ddb3b863d373193U, 0x3d3d65acbc1db85bU,
  0x3d043310bdc9599aU, 0x3d7ec4ef3d93d2e7U, 0x3d94ec703d907027U, 0xbba1d907bcf01d78U,
  0xbd021d073b652876U, 0xbd6149d73d1e4543U, 0xbbfdf7d03db90df4U, 0x3dd2f44fbc8047a7U,
  0x3e354d333d723a80U, 0xbdb88c14be20b9c3U, 0x3e2a144bbc804292U, 0x3e105c0dbe7db543U,
  0x3e7983423e3d6872U, 0xbe32adc2be06830fU, 0xbe1d8eb53e4c10e5U, 0xbe28950b3e211a1cU,
  0xbdb2254dbe0e4573U, 0xbd8a659b3de8692dU, 0xbe096195be3eec35U, 0xbe2b8d333e4bdbaaU,
  0xbcb2879c3e3dd4bbU, 0xbe45e7a5bde648b9U, 0xbe0d3fe0bdddc0afU, 0xbd51abcabe17f6c5U,
  0xbd0a06853e2da50aU, 0xbe8235ac3e3db2c8U, 0x3dd910533c2f691dU, 0xbde6a34d3db5dacaU,
  0xbe1b8a333de82cbeU, 0xbdecfd83bd09d20eU, 0x3d400db5be65a089U, 0xbcd388fc3e0789a4U,
  0xbe441148bd9a5cfdU, 0x3e231fb33daff906U, 0x3c9f55753e8608c6U, 0x3de981fd3d186547U,
  0xbd83ed46be4c9fcdU, 0x3e42c5f9bdbed4e6U, 0xbd5047e1be4e7673U, 0x3e1f04613e247cccU,
  0x3cdef3a13d56667fU, 0xbe48265f3db61e94U, 0xbc9b51f5bd8caac0U, 0x3de3621dbdb233a7U,
  0x3cfe688cbdf454fdU, 0x3d4a6ab9bd286201U, 0x3c4ca38f3cc43209U, 0xbb04c299be411324U,
  0x3e39af29bb99935eU, 0x3e046410bddfa681U, 0xbd6b08dbbdc0a039U, 0x3d98ef02bb1c477bU,
  0x3d8510053d8ef0b2U, 0x3d57d0ccbd01e630U, 0x3d36c330bdeea581U, 0x3dfec753bcf7a7f4U,
  0x3d04433a3c5a67bfU, 0xbdea43cfbd84a238U, 0x3d304b92bc7a7477U, 0x3d9a7e3abd4dacd4U,
  0xbe1493813db176eeU, 0xbca991fabd986dadU, 0x3dbdb2493d64090fU, 0x3d8021fbba8055f1U,
  0xbd883eebbdd8b4c0U, 0xbd250cbe3d5ddddcU, 0x3e052f75bc3f3935U, 0xbdeac84f3d68e306U,
  0xbce7415a3de1bd27U, 0x3de3b31ebe1fc1d3U, 0xbe381d55bdb39a15U, 0x3d8962db3d8b0e84U,
  0xbe2aa9343dc5709fU, 0x3d13ea1abc39aeeeU, 0x3dcfeb46bd92493eU, 0x3d7165553d03ea11U,
  0x3d1a04c9bd63aa23U, 0x3d9ba3993d702507U, 0x3e6a75a33d8d0d4aU, 0x3e2612d9bea277cdU,
  0x3dd96e6bbda765d0U, 0x3d7152eebd51dfc3U, 0x3dc80e813e4732c4U, 0x3da8f1dfbd27a3f3U,
  0x3dc01b49bd653beaU, 0x3e02a7143c7270dbU, 0xbcf1e2b3bd89477bU, 0x3d992679be1d4619U,
  0x3d61eddbbd57fd56U, 0x3c94f0763df17bbeU, 0xbd6cc5483ce0f518U, 0x3d53f0f9bd63d675U,
  0x3dcd37423e1dde48U, 0x3dc02dff3d012cd4U, 0xbd9815c7bda7f740U, 0xbe07497cbe261bacU,
  0xbdd1564b3c7d321fU, 0xbcd0bb863d9acc9eU, 0x3dbfaa2dbde6614fU, 0x3d85b987bd9b2759U,
  0xbdd0776b3d18a9abU, 0xbe204b0abd5e2a5aU, 0xbc28f21f3d881f50U, 0xbd72610f3d39aad6U,
  0xbdb9dd87bdce40e7U, 0x3d9df5043cf61422U, 0xbc3c6ec0bcca7c64U, 0xbda62799bdbbef75U,
  0x3dc56ecb3db36022U, 0x3da36735be66e69bU, 0x3d6555c7bd97475cU, 0x3dc281b2bc6b026aU,
  0xbcab92023d03fcd1U, 0xbc2b5ff23cff4e7fU, 0x3cf25339bc280725U, 0xbbadc800be2ad7f1U,
  0x3ca96bac3dcf92afU, 0x3b2fd7d6bda07924U, 0x3dd8b755bd8d875dU, 0xbd2f5f083d89e24fU,
  0x3d95c87b3de7d8acU, 0x3db7b60abd886a2aU, 0xbcf3cad73d93aa13U, 0xba98a1633d34ad64U,
  0xbc1afd7f3df28d96U, 0xbda7ca99bdddec84U, 0x3e17b2abbc1db4b8U, 0xbcad973a3bb996a2U,
  0xbcfd1d843da04de1U, 0xbdb04887bd9be9e7U, 0xbd367488bdf121fbU, 0xbde784083d5e4bdcU,
  0xbd932fd0bdba80edU, 0x3d2daf28bc294d06U, 0x3d9b91e7bc15efe0U, 0x3dfb0001be281e51U,
  0x3e3b16313e1eaa76U, 0x3dc93903be290ebcU, 0x3d52a9413d4dc81fU, 0xbdbb54e4be4dd2c2U,
  0x3d80efa6bde4f63bU, 0x3c1d88683d31f23bU, 0x3de41f5cbbaaabe7U, 0x3d6dfe343e04aa53U,
  0x3dd6cc9ebe07ccafU, 0xbceed4dbbbb5bf19U, 0xbdf91ce3bd3b5ee5U, 0x3e6de198bd7d6f22U,
  0x3ddb16b5bc7df553U, 0x3e531419bcc005ebU, 0x3dde7b87bd824547U, 0x3e7af39b3cb60aceU,
  0xbdade8153e13409aU, 0x3ba02cb4bdcf2faeU, 0xbde94e6a3d268c83U, 0xbda3fd4bbd12885eU,
  0x3da7dcfc3dd6a272U, 0xbd050a7d3de0a403U, 0x3d47dfe53e04851fU, 0xbdfc6fc4bd826f27U,
  0xbd72605abe622699U, 0x3d49e6313d85a687U, 0xbdf7358fbd4decbbU, 0x3c31553ebaf396a1U,
  0xbc456c37be15788dU, 0x3e10f4693e26df8eU, 0x3d29f5f7bd62236cU, 0x3e0e69233df5eff4U,
  0x3da1b7ff3d84e0a2U, 0x3e1f7b19be35265aU, 0x3de32f233d4f9efeU, 0x3c8fc1c03df18d48U,
  0x3bc27bab3e042d33U, 0x3d123dc4bd6719c9U, 0x3d364a08bce1d63bU, 0x3e0cb0853cbd49b2U,
  0xbc7cccb2be155c07U, 0x3e204a7d3cead498U, 0x3dd64ce6bd01ba54U, 0x3dc3424b3da90375U,
  0xbe329f3e3e007076U, 0x3d13cce8bd4b8c20U, 0x3d74bc703e15545fU, 0x3d3d1e51be0dc0d6U,
  0xbdadbb54bdb0e2afU, 0xbdbc4b55bdc9d8cbU, 0x3d847ebd3dcc198aU, 0xbd915a04bd757ccbU,
  0xbbd95fe4bd2a8166U, 0xbb8c690bbdaa7e84U, 0xbd50c8fbbe219f22U, 0x3d00cb083e45c9e1U,
  0xbcc7bbd93dcb0385U, 0x3e0c38363db41ee3U, 0x3d314d55be0df022U, 0x3ddf939abdb085e0U,
  0x3e16e88dbd3a718bU, 0x3e4c72abbc5b2257U, 0x3e9de41b3e6aca67U, 0x3d9b7458be00249aU,
  0xbcb2c32ebdab850bU, 0x3e403ab93cf6ed55U, 0x3e7b63bd3d71ac7fU, 0x3dd89a923e49ff70U,
  0x3e2e58fdbd0179b5U, 0x3e1a59ad3ca03967U, 0xbdb0a28abe05efe2U, 0x3e1567a4be888abeU,
  0x3d6729bdbd60ae60U, 0x3e19d77c3df379abU, 0xbe05bf893e871acbU, 0x3db31537bd5ca03bU,
  0xbd0ccedfbdcf73c1U, 0x3e0e021abdc12f58U, 0xbd941a6cbe302acbU, 0xbded8616bc463d8aU,
  0x3cc77c653d64ebf5U, 0x3da02cbb3c8f97c2U, 0x3e0ca474bcb59192U, 0xbd08ea2ebe711338U,
  0xbdc38948bdb45b6cU, 0xbd7200623daa636fU, 0x3cc7afec3d281a06U, 0xbc4f55b1bd8a93c8U,
  0xbcf35442bdff3a0aU, 0xbc669070bd80bba4U, 0xbc21c5473d830adaU, 0xbdda8f7bbe545f58U,
  0x3e6d4a613e058135U, 0x3d14e247be16a200U, 0xbe0f9fecbce4a0ddU, 0xbdea756cbc804a00U,
  0x3db488373d1b2113U, 0x3c221f09bc44959bU, 0xbc4a2d29bd8ce6a8U, 0x3d7a309fbddb7ca4U,
  0x3d9bdf49bce65f6aU, 0x3db7a9bcbdd5546fU, 0x3d88bf2bbce1d9ceU, 0xbd0b6431bd144d98U,
  0x3dbfc9c93de11ec2U, 0x3d7d21b23d8635dbU, 0x3dac1efc3dafd6afU, 0xbcc63135be08f223U,
  0x3e0b868ebdd1d8c6U, 0xbd0006f93d3ec353U, 0x3dbe2e1ebdd20397U, 0xbdf8cf893cdbc812U,
  0x3cb0a5b33d5b1a8eU, 0xbe5d31aebe085dc5U, 0xbda1b7643d9f2823U, 0x3d454c983e0e46cbU,
  0xbdb967213d1b5aabU, 0x3e263791bd4e86b8U, 0x3e1519a4bcb77d04U, 0x3d7e2b0a3dd708c5U,
  0x3d9305afbc1303c9U, 0xbd48f7a13e019742U, 0x3d0bec2abcb8dfecU, 0x3e184fefbe9741f5U,
  0x3d7d4528baf894b4U, 0x3bd22aa93d2ff05cU, 0xbafeb91d3e54cf07U, 0x3df31c0d3d26bea3U,
  0x387d377fbdc87489U, 0x3e022b303cb970aaU, 0xbd773920bda8b0f9U, 0x3d4291c3bd9cc74dU,
  0x3da7b70dbdc24e81U, 0x3dfef6363c2ae4fdU, 0xbce178f1be021454U, 0x3dd3178dbd40e199U,
  0x3d8b619e3e3c26ebU, 0x3c796ff6be25294aU, 0xbde9ce6fbdc46290U, 0x3bf7c0533dad057fU,
  0xbd9893ea3cd5d345U, 0x3dcdeb163cfa0894U, 0x3d3c3342bd3d1e4bU, 0x3dfd8decbde3194aU,
  0xbd9b176abd4b7c79U, 0xbd5357d0be34b398U, 0x3d8f9188bd1b789fU, 0xbd7f98553cfdb0ecU,
  0x3d1d6c31bd9caebcU, 0xbdb3ce29bc95df17U, 0xbd2c04403d1d9872U, 0xbdf8b168be3150c0U,
  0x3cef8efe3d414ad5U, 0xbe3fd3cd3cfc45cbU, 0xbcb634e3be14bd05U, 0x3e1f0dc5bc4f856eU,
  0xbd94da573d909dbfU, 0xbdcdd69fbd0f6e27U, 0x3bb210453dfe6416U, 0xbda90fd4bdf47a70U,
  0x3e0637643e66e166U, 0x3ae78c9cbd0015e4U, 0xbd001b193dd566a9U, 0x3d79ab2fbcde9c6cU,
  0xbba99bfe3c25aa36U, 0xbd097d053c9578d0U, 0x3bc991c63c1e57bfU, 0xbd05b9c73d8dd377U,
  0x3da03fa43e13c4feU, 0xbd04b2803e30e28eU, 0x3db81cd8bcc74b2cU, 0xbd4e6308bd67beaeU,
  0xbdca29ee3ca22fc1U, 0xbd0cb4bd3ce6a163U, 0x3d708d9abc4ff031U, 0x3d7d8c603dd5f3c4U,
  0xbd5653d3bd63923dU, 0x3dc3b6993d86494aU, 0x3c460d283d9976b1U, 0xbc5505e23ca4f3f1U,
  0x3da5eb80bca1a48aU, 0x3dcf96653d4ec7eeU, 0x3d70d254bd5c6a47U, 0x3ddfaa413e04796cU,
  0x3cdb6242bd31dd59U, 0x3c9c9328bd875505U, 0x3d1b06413cd83011U, 0x3e135f193c51b417U,
  0x3d67923bbe0dcaf7U, 0x3da1c9b73d175227U, 0xbccc6b32be3bd4edU, 0x38d44c4b3ca52daeU,
  0x3d3067b7bcabc96aU, 0xbce3fe153d524d48U, 0xbd26608abe109b51U, 0xbcd3e8b4bc6903a3U,
  0xbd26d7c4bd189498U, 0x3d1e3c59bd8b6c32U, 0xbd575825bdcc78bcU, 0xbd68a7b43d645490U,
  0x3d08a4543acfdffdU, 0x3e1fc3bc3cff5e79U, 0xbcfa5787bd2bac38U, 0x3deb5b623d5762e5U,
  0x3e21d264bd2f3862U, 0x3d562a85bdd83b98U, 0x3d2c8dacbd16682fU, 0xbd5cd71cbd0eeafbU,
  0xbd6da8e2bd5879a7U, 0xbe073c28be015ea2U, 0xbe16693b3ca3ca81U, 0xbe58f166bb164201U,
  0xbd815265bcc45840U, 0xbd37ea553e21bb93U, 0xbd7b59b5bcd1571fU, 0xbe2bef35be6d0f02U,
  0xbe358bc7bd32560bU, 0xbddfb56dbd4cb49dU, 0x3d8a904b3dd3ae80U, 0xbddb18a9bdc28d74U,
  0x3db8d6fa3d797b2fU, 0xbe274b893dfa104aU, 0xbd9999143e2f4813U, 0xbdfb85c8bde088c4U,
  0x3e266b853b6db1cdU, 0xbd3c8c7d3e250980U, 0xbde27957be3fdd13U, 0xbe2074bd3e67b82eU,
  0x3d80cf583d803506U, 0x3e3b5cb1bc287abaU, 0x3c229fabbe24c3d9U, 0xbcfb40a93bf2e942U,
  0xbda1ff583db48abaU, 0x3d3d4f3b3df4d9b2U, 0x3dc8735d3d90ce4aU, 0xbb2a053dbe9c7409U,
  0x3cd5db5bbc938fcaU, 0xbcd0a647bdee57abU, 0xbd69131fbdd73a96U, 0xbdac03cfbd9c7becU,
  0xbdee4c443cc313e7U, 0xbe4626f3bce162cfU, 0x3d1a8109bc87a08cU, 0xbdc2927f3e6e0216U,
  0xbe0c9f6ebc91e9a9U, 0xbe1ffd8ebd7e9290U, 0xbc947fbdbe01de5aU, 0xbd6ac8c6be782d84U,
  0xbdc0a08c3d81567bU, 0xbe2304e9bce3adbaU, 0x3e22f787bc234dc4U, 0xbe08dfa93e0161caU,
  0xbdc5ba003e3f84dbU, 0xbd616253be2b246aU, 0x3d0d02403bbfc74cU, 0xbd70356c3e09d906U,
  0xbdd615c8bdfda974U, 0xbdbdd15f3d89fcd6U, 0x3de1bad23dbc2e1fU, 0x3d388ee13cb48e60U,
  0xbd8c3ab3bb8749a9U, 0xbe0839f5bdf3f16bU, 0xbe210b853d82863dU, 0x3d1d14853e2c8873U,
  0xbe3700de3db621ecU, 0xbda8b0f3bd4b919eU, 0xbd083b3abe22dcc7U, 0x3e5f054f3dbe8d83U,
  0xbc15f16fbe860cbbU, 0x3e263699bded7d68U, 0x3d7565613e5c1066U, 0x3d186e5abe3daa9bU,
  0x3e9400373e62234fU, 0x3e2cd6b7bde33539U, 0x3dfe5914be31528eU, 0x3e280480b941ee8cU,
  0x3cbe89893ce9a89eU, 0x3c6c9a363e101dafU, 0xbb84579ebd241d70U, 0x3e3df2f7be21ad04U,
  0xbd5f6d7dbce8dac6U, 0xbd08aeb13d4f8ef3U, 0x3dd26c2dbdb23edbU, 0x3d8a65b63d690420U,
  0xbd8b56163ea34531U, 0x3d2cfea8bd1c56cdU, 0x3dc4868b3dbb94b7U, 0xbdcd0076be354259U,
  0xbcf06201bdc62660U, 0xbda0e067be5c03e6U, 0x3e0ff5c73c50b04cU, 0xbe14778d3d6086e3U,
  0x3df4f96a3e07db1cU, 0xbdb0cd78bdcac417U, 0x3d7a12c03b03a5caU, 0x3e0d546fbd4fbccdU,
  0x3ddf76163dff8af1U, 0xbd8c2ce1bd8883d7U, 0xbda916b33e61a5ebU, 0xbe357c3a3cde9acaU,
  0xbd92a83cbd37c68bU, 0x3d6f1e123e11ff27U, 0xbdf868eabde7df9eU, 0xbe3529b03e1ccc87U,
  0xbc8a2bcc3df31b8eU, 0xbc887435bc7e4e50U, 0xbdffcbd0bd9b3a89U, 0x3d2d8bf2be32c52eU,
  0xbc69e50e3e061bc9U, 0xbe706cab3d1d8ae6U, 0x3dc23d4c3c531811U, 0xbd8a14ea3d51e69cU,
  0xbe00845c3d7fd7aaU, 0xbdf1d2a4be028a2cU, 0x3e004e19be23d73fU, 0xbc9d5d193e26b2e5U,
  0xbd0d13aebd00fb57U, 0x3e0002373e1eeaa6U, 0x3d1333a83dbaf21fU, 0xbc97dd163e072bdbU,
  0xbded8a17bd60ac79U, 0x3dd793f4be033d14U, 0xbd9df9b6bddd9a64U, 0xbb86f7e73e0a001cU,
  0x3bce6bc1bcc2a7a7U, 0xbcad4ac73d098cabU, 0xbd36d4a73cb8f3c9U, 0x3dea48b63d15dddfU,
  0x3c2285a3bd0e1439U, 0x3d2e33bdbcbf470fU, 0x3d1c31a73ba467c5U, 0xbb4a60c43d6554f6U,
  0xbc1ea3913ce1d266U, 0x3dc1cc253d035a73U, 0x3dbdfa3dbd7c58e2U, 0xbcb7815e3d5bef39U,
  0x3db1d9ab3dde0c32U, 0x3db8dbd73daf2e03U, 0x3cc97af63d329398U, 0x3d4c9af4bdb05527U,
  0xbe3a8277bcad4a50U, 0x3d3412c53c8e4e0eU, 0xbd6a42c3bd8cc2dbU, 0x3cce85cbbe0aa070U,
  0xbddb22453d27aaeeU, 0x3d3d917bbe26f367U, 0x3d0c1b733e1a7f04U, 0xbd64cc6dbd80bee9U,
  0xbcc8ca9b3c2a5a27U, 0x3d8b0beabc0b58edU, 0xbd2c83673b0c0613U, 0xbcd4cb3f3cedf387U,
  0x3cbdbc023d6069e4U, 0x3cccebc8bdb7b386U, 0x3d3faad9bd98a644U, 0x3cd13f6dbdd3b131U,
  0x3dd28428bcd3dd17U, 0xbb970b29be0e7b6fU, 0xbe0657eabcc04aa1U, 0xbca4d631bb10f291U,
  0xbd7e9784bcdafcd2U, 0xbdc02bcebb3f8220U, 0x3ccf155c3dcf62e5U, 0xbdfc5e1e3dc78896U,
  0xbe2b6f963df37ddaU, 0xbd1151b7bdd5c77aU, 0xbe32a04fbde43e05U, 0xbd40e7cbbe0838b8U,
  0xbe1a2f963d822c12U, 0xbe638c063d14ece5U, 0x3dbc747b3d244808U, 0xbca3da3c3d5b3f96U,
  0xbe1ecf383e453bf6U, 0xbd8b9f34bde8bc8eU, 0x3c88d676bd2bba04U, 0xbdbd2c103d7c4475U,
  0xbe2f21b6bdcb7eadU, 0xbddb71b83db90ac6U, 0x3e18f4eb3e1c11d6U, 0x3de6c6a13dda63b8U,
  0xbc6b8e4ebdf97865U, 0x3b951e97bd7b5deeU, 0xbdc213083c86d3b5U, 0xbc68c3ab3d965670U,
  0x3e1dab1b3dc2fec3U, 0x3df10c3cbe57e5a8U, 0xbb1eb31c3e1f6adeU, 0xbe5373c23c8c160fU,
  0xbd7d5b0a3e57acd8U, 0xbe581bbb3e3146ddU, 0xbd3a8233bdd0cd59U, 0xbdb72af63dd5a69dU,
  0xbd7cd2d4be98c92aU, 0xbe90207c3e0df294U, 0xbe4bd6293e00d5f6U, 0xbe7380be3d14bfcdU,
  0xbe6cbd3abdba1ab7U, 0xbdc5249bbd9f5a4fU, 0xbda925463d713181U, 0xbdf6ce3e3df1dec4U,
  0x3d49d69f3dab2ecdU, 0xbd0736683b2e48adU, 0xbdd2a8e03e1d2286U, 0xbd98d6023c3ae5fbU,
  0x3d37b12cbe308897U, 0xbdf4d6e03d59de92U, 0xbd4e82003d1e0235U, 0x3df8391e3d90f050U,
  0x3d67e87c3de95f8eU, 0x3d9021b93e9fa84fU, 0xbe35b86dbe26f022U, 0x3e09ab9cbd30600dU,
  0xbdef3af43c3776e2U, 0x3e4fdd953d4e7731U, 0x3e0e39833dd3a6ecU, 0xbd969282be212924U,
  0x3d987f80bd8d03deU, 0xbde49504bd194acdU, 0xbe549ead3b77bbebU, 0xbe8bda4c3dee02efU,
  0xbcc51b3fbcf26194U, 0xbdf192893dafc77bU, 0xbdec509ebc21bb6aU, 0xbd5f16cc3e20c6b9U,
  0xbdd76fb0bd008f43U, 0xbdceb4c2bd32a841U, 0x3ccc0923bdfbc519U, 0xbdb83d53be0053b0U,
  0xbe4258af3d58f911U, 0xbe1345f73e2cf263U, 0x3d88c4b43e4f899bU, 0xbd9ce0963e3a0244U,
  0xbd24df2b3d498979U, 0xbd53ec7ebd9587f5U, 0x3dd2b9943caedb81U, 0xbe0a1eab3e367725U,
  0xbcc30795be1a3519U, 0xbda910c43de9c221U, 0x3e117bd33e41b329U, 0x3c1d324f3d51018cU,
  0x3d2f6c23bd49ec10U, 0xbdb7ba9bbdc1c930U, 0xbe00dab6bc883766U, 0xbdc3e7f43daf8107U,
  0xbd29011c3db7149dU, 0x3ceccaa7bd857fbeU, 0xbe38af0b3dcddf91U, 0x3cf7f19e3d63a809U,
  0x3dae57cc3ca55e9cU, 0xbddd3c04bcb14adcU, 0xbe113101bd0da9c5U, 0xbc8fe3f6bd7f7899U,
  0xbd20ad673d7c122eU, 0x3ce446063e01ea22U, 0x3d9afe2d3caab78cU, 0x3d0fa29d3e204bc5U,
  0x3d20a516bceead5eU, 0x3dd3bd78bbef2783U, 0x39c54f5ebe0c4d45U, 0x3e3478453c9c1c75U,
  0x3e07a48abd935dedU, 0x3cd346a3bdee21d5U, 0x3bcbc6553bb9c055U, 0xbd03841e3d1da29dU,
  0x3ce81c92bb4db683U, 0x3e21c6643d6c00c7U, 0x3c71bd8cbd87c4e8U, 0xbcf836183d935496U,
  0xbd17c04bbd983c4eU, 0x3d68a9173ceb2fcfU, 0x3db852db3d850ff4U, 0xbd568ccc3c4087ddU,
  0xbcc7ddc7bc5ec00cU, 0xbdbdb1723dd9481fU, 0xbc5dc5f3bcfe0b4fU, 0x3c63c8cc3cc5f9e5U,
  0xbddfdc5a3bb18e7bU, 0x3e006d0b3c499884U, 0x3d62d2b7bbc14883U, 0x3e13cc3c3cbb4660U,
  0xbda9312dbc8b7cf0U, 0x3cbb444fbdf0087aU, 0x3e2ad0163e178e45U, 0x3e8b7c67be212735U,
  0x3e36a7d5bda8997dU, 0x3e2824aa3d4234f6U, 0x3caba9243e0fdc9aU, 0x3d863ec33e166036U,
  0xbd364fc8bda0d08fU, 0x3e3ea994bd8faaa1U, 0xbd9c2343bc4db408U, 0x3dcd2d1c3d4d4fd0U,
  0x3ca8ac2fbe207a33U, 0xbd1931ca3e04926aU, 0xbd31d707bdf6010fU, 0x3c96a2c9bdb6c5b8U,
  0x3de388713e25cd62U, 0x3df172eabd9033d1U, 0xbd26b5d3be0b920dU, 0xbd943e59bd459d4aU,
  0x3e0cd1b83d9f0740U, 0xbde0c92e3deb0d4bU, 0x3ce93875bb8a43b9U, 0xbc4fe9e1bd99aae4U,
  0x3e0eb1a8bd67d1c5U, 0x3e2246e3bbd13168U, 0x3ca0c8153e0013afU, 0xbd92d5e8bcdab63dU,
  0xbd9573763df212beU, 0xbdc27a043d2ec8b2U, 0xbdc32323be3306f9U, 0xbdbed559bd5353f1U,
  0xbd2d8ab4be437a3fU, 0xbde9e78e3da4cd94U, 0xbe0908853d88d7f6U, 0x3d12a607bd3d36a3U,
  0x3dd376083cbe4280U, 0x3d37515abce3b9edU, 0xbb3359fcbd80ef90U, 0xbdaec02e3dc858f4U,
  0x3d4d69153c672958U, 0x3df411303d9f96e0U, 0xbc82dc043c8f2cc0U, 0x3dab926c3cda471aU,
  0xbdfbef31bda7714aU, 0xbd0643e63de089f9U, 0x3da8fd74bd8428fcU, 0xbc4e3fcc3ba3946fU,
  0x3d979aefbce4fc7cU, 0x3c0d335abde02abaU, 0x3cabd3c2bd9de3cbU, 0x3d8d7ee4bce07c1fU,
  0xbcc06059bdcfa160U, 0x3de1e0a63dea2b77U, 0x3bfbaea8bcb40590U, 0xbd8797f0be3ea895U,
  0x3ced46eebde20256U, 0xbd5ce9923d9564cfU, 0xbe2bb0343d166fa5U, 0xbdc3418cbe4a00a1U,
  0xbdee3c2fbc8acaafU, 0xbc936008bde17c67U, 0xbd66e77a3df46fb6U, 0xbe76ebfd3da49402U,
  0xbdbb22f3bda0e60fU, 0x3da28c30bde61478U, 0xbde4775fbe5b6c10U, 0xbddca8d43d791c60U,
  0xbdb794903db3d942U, 0xbe8e3082bd89c3dcU, 0x3d8c9e48bd2a548dU, 0xbd5701cf3d081765U,
  0xbc79667a3e169278U, 0xbd1c091bbd1db8a9U, 0xbd55e4443c4400bfU, 0xbdd642d43d01280eU,
  0xbd82664abd2cf60aU, 0x3d5713573d8570cfU, 0x3d9f1c7b3dae6b52U, 0x3da922f03c11c0e9U,
  0x3d9d0daebd328a7eU, 0xbdc66c25be585823U, 0xbd5426663ca1fa80U, 0x3d0a956c3de626aaU,
  0x3db2e3a03d65084aU, 0x3c807712bc9253b4U, 0xbd99907e3dd5c44fU, 0x3da20eb0bc81d8e5U,
  0xbb16aabfbde33d15U, 0xbd29e2a13e0c7c21U, 0x3d70e0ad3d17063aU, 0x3e02bf243d6f765dU,
  0x3d0e0809bd6cc44fU, 0x3d903abd3ddd204aU, 0x3daf3e2c3d86a195U, 0x3ce9cfa1bd974d39U,
  0x3df980de3d3d4af2U, 0x39ccd7813d48bfa2U, 0x3c1446febb48f79bU, 0x3d8bb575bcc32368U,
  0xbe175c423dadf1abU, 0xbc9cf0b53ced1e62U, 0x3df29e3b3ce56bf1U, 0x3d27a7883da5cad1U,
  0xbdc4e60bbabbf62dU, 0x3de6b724bdb28b00U, 0x3c78314b3dcafdbbU, 0x3c8b78c7bde6fb26U,
  0xbdcce9cabd8174d8U, 0xbc270c46bdc07128U, 0xbde616cd3de00526U, 0x3e09a98c3cdbdb27U,
  0xbe29c81b3b232ac3U, 0x3d8d974fbc0e85c3U, 0xbda939b93dd4c9bfU, 0xbd517c6f3e0ee342U,
  0xbdfa54a4bd172627U, 0x3e0a8baebda23fa0U, 0x3e169c1c3d22f802U, 0x3e45051fbd3e87caU,
  0x3db97071bd8b27f5U, 0x3d2f90253d7302a4U, 0xbd87357abd37cb79U, 0x3e86fccd3d2a3ebbU,
  0x3e3e0e9e3d46a16fU, 0xbd9e7efc3c55adf3U, 0x3e293fce3d445d0bU, 0x3dc216f13b9c6a56U,
  0x3db820b3bd2353a8U, 0x3dd8e798bd4b9bc7U, 0xbe1f60b3bd6b7c0cU, 0x3cd888d9bdc38164U,
  0x3dbffd84be24cec2U, 0xbb8bf470bb4b94f1U, 0xbc525b493da63e6fU, 0x3c65e44cbd3ac5edU,
  0x3dd8e1973dc5db48U, 0xbccbd7a0be1a6db1U, 0xbd849b16bdde543fU, 0xbdb2f35bbd475bf4U,
  0x3d53a98ebd128ea6U, 0x3e125b603d2c65bcU, 0x3b5a1fe3bd33eb4dU, 0x3e126f55bd89fc62U,
  0xbbcc6ae03ca5c1f8U, 0xbcabb8433e6145d1U, 0xbe1db16b3dc63edaU, 0x3e2f976f3e169237U,
  0x3d8291b53dd8ffebU, 0x3df50e703d12351dU, 0x3da17590bd0f4fdeU, 0x3e3ffc5fbe3c608aU,
  0x3c1c50c33dc1a362U, 0x3e6fa410be04b9d1U, 0x3e460ce43cb94ce4U, 0x3e00aa28bd494807U,
  0x3df3a02c3e0baa4bU, 0x3e863a6b3de85dbaU, 0x3e033389bda6c875U, 0x3df5b24c3d9f587fU,
  0xbdab0a3dbdfc0490U, 0x3da7e4fe3d397c6cU, 0x3c82047ebe5230e7U, 0x3df205b73df499c8U,
  0xbd4962d33da87a96U, 0x3df2c1c9be05e922U, 0x3e60d7143de02c5fU, 0xbd7ccc29be47da0bU,
  0xbceba570bdca75edU, 0xbe1a8ad3bc69881cU, 0xbd9f1c923d2e3893U, 0x3c166c553dd8a502U,
  0x3e47087e3ba42bedU, 0xbc9995e5be1afb66U, 0x3a5aeaf7be25e596U, 0x3c73caebbdb7c60dU,
  0xbdb4fea83cb9d212U, 0xbd35c72c3d0c5480U, 0xbc825cd63d4a007eU, 0x3d39f4c23d86824bU,
  0xbd80d670bd825678U, 0xbccee5e83b59bdfbU, 0x3d6962393cff9426U, 0xbe1409813d9bfee0U,
  0xbc91b9b43d0d19b8U, 0xbda10e36be22efe0U, 0xbbb8b432bd6c840cU, 0xbcccb29abd81b811U,
  0xbc78c75abce03c55U, 0xbde36aae3d237007U, 0xbb13f0093d79581eU, 0xbd3eeb7dbdbcd8e7U,
  0xbe11f1663db20b62U, 0xbb551b1abcda5f1dU, 0x3ba1ab793b86c7e8U, 0xbab0efe6bb18a927U,
  0xbe1675e5bc2d9ce3U, 0xbcd79fe53d644202U, 0xbbc8285dbd82d7c4U, 0x3d4d4c673e11cccaU,
  0x3db0bc2c3d58eaa0U, 0x3d58dd193cd91d33U, 0xbc98db073d659fafU, 0xbc7d41013d58e3a2U,
  0xbc069e363c95bea1U, 0x3c8d25ba3de80abeU, 0xbcdd70aa3cf6d02dU, 0x3cffc0fb3d86d1f7U,
  0x3dd3f23d3d2d1770U, 0x3dd6f6d43d9a3b54U, 0x3c0068babc8f8ee2U, 0xba8274bb3dd6ce02U,
  0x3c3af701bd6123e2U, 0x3d322a26bd8eb867U, 0x3de652ebbb3e2c21U, 0xbd417c083dd39ed6U,
  0xbda0f4aa3da775e7U, 0xbc7f34ef3d1c99aaU, 0xbc15a065bddeaa85U, 0xbb7ebe44bd52857cU,
  0x3d671466bc7bf7ceU, 0x3defa0413d9bee7dU, 0x3dc1d0323d55f7a1U, 0x3d23f56f3dbfa71eU,
  0xbdcb1821bdc4be7bU, 0xbc73c53abd924aa1U, 0x3d8d3169bdc3c7bcU, 0x3d0e478ebccfe48bU,
  0x3d3a0934bde14c3dU, 0x3a20fbdabe06d2e5U, 0x3d52b888bc29c54bU, 0xbd9ac1533dc24f67U,
  0xbc9f6235bda8a1d8U, 0x3e07f2b5bd5e8f9cU, 0x3c182894bdbbd6daU, 0xbdf37ec43d1e9f78U,
  0xbdd727acbd929651U, 0xbdb587c8bd8c08d3U, 0xbde1fd163c1026dcU, 0xbd9cefa5bd671c73U,
  0x3cde0fb53d94ac6cU, 0xbe236872bde486c5U, 0x3e249d763ccb52d4U, 0x3cae2f6a3d31772aU,
  0x3d00a9b83d342041U, 0xbc2aeff0bd9e9733U, 0xbcbad618bc75bf9aU, 0xbd23131abe0a0745U,
  0x3d71c0103dc3b302U, 0xbd588503bc9ffa80U, 0x3d37e34dbd98d680U, 0x3cc137bd3c117e62U,
  0xbbfeb0363dacad38U, 0x3c766813bbf3669cU, 0xbd24ec803d48f1edU, 0xbdf5b6ccbe1e86b8U,
  0xbd38f920bcdc01a8U, 0x3c65f7183d672c28U, 0x3d60a4ef3dbd8813U, 0x3cc7e0d83d1167ccU,
  0x3dd61ffcbdf75518U, 0xbd2407fcbd36fa18U, 0xbdb7eec73d4db3acU, 0xbc6dca72bc987447U,
  0x3df5907a3d8ab894U, 0x3e29f379bcf0c180U, 0x3db009363dc206edU, 0x3d6e5778bd45c614U,
  0xbd5e66c43d7a3646U, 0x3c41f9cb3ded6c22U, 0xbe7f11fdbd86a562U, 0x3d4b79a03d54bdabU,
  0xbe8c9aa4bd2564bdU, 0xbdaa0e603e202ea8U, 0xbe6fc4443d7eb4f8U, 0xbdc63bc93d2806feU,
  0xbe29858abd14037eU, 0x3ca51b023c8f2d99U, 0xbe1d63e7bcf2296fU, 0x3b2afeaf3d66e0b5U,
  0xbce2c4093c191bfcU, 0x3d081eef3e012ca8U, 0x3c7eafa73b2eba0eU, 0xbdf380acbc36428aU,
  0xba348e4abe8436d8U, 0xbde0fa0c3d0a70a7U, 0xbda3173b3d1b5e67U, 0x3dc0b677bd8a3685U,
  0x3e1e8bd3bda906c0U, 0x3d3fb499be6513feU, 0xbcea18d8baf123e2U, 0x3e555312bb8ee92eU,
  0x3d290a93be26f10bU, 0x3e173c6b3d85344dU, 0x3dc74e343c9e5dfaU, 0x3cf2013ebdf1bf88U,
  0xbd9000803dcbc3f3U, 0xbdc16d46bdfe10b5U, 0xbd6f8dab3e0f952cU, 0xbe1b25eb3dc56696U,
  0xbdcf6312be8348b3U, 0xbd8fe8973df8a1feU, 0xbe3ae5b4be3fad92U, 0xbe9121333e2250feU,
  0xbd4b92363d114836U, 0xbdc0ee21bddd7c04U, 0xbdb1eac3bd526e23U, 0x3cc53662bda4145cU,
  0xbe5645a83da78ee5U, 0xbda251be3e2a94d3U, 0x3d7d6b933e1d385eU, 0x3c44e1243dc66d5eU,
  0xbcf28461bbc20e78U, 0xbe4d3ea6bdbbd393U, 0xbd0a02c9be1a93e1U, 0xbdc4992f3e0f7f69U,
  0xbe325a64bd24ada8U, 0x3e6b232a3dcc2b18U, 0x3cfc3429bd4ccd3aU, 0x3e3d79adbaa3ee7bU,
  0xbdeff588bdd2bd97U, 0x3e2d2f9a3c389a73U, 0xbe78724dbddb354eU, 0x3d04bea93d27ce0eU,
  0xbdadf0d83d8c69d1U, 0x3d6bd7ee3dfe7969U, 0xbd6a47babcfbd24cU, 0x3c7ff50ebccadb6eU,
  0x3dc4a490bd88e6a9U, 0x3e2777fc3cc57e5bU, 0xbd0be665bc61f9bdU, 0x3e2349603d202496U,
  0x3df0e3c03c3518bbU, 0x3e297cd2bdbd981cU, 0x3d6d6cb0bab87fa3U, 0xbd022f6b3dbea943U,
  0x3cda15173e43b238U, 0x3dc2654c3cbb4017U, 0x3d7ac255bccfac42U, 0x3e0c5dd33cb413efU,
  0xbd8009dabddcd9f6U, 0x3d35eb583d3367ddU, 0xbd4d2ab9bdcf352eU, 0x3ded1e2f3d9adda6U,
  0xbe208fe8bcf1d166U, 0x3e1d8c8abc9151c6U, 0x3c599de83daf2e79U, 0xbcd308acbe045377U,
  0x3bc0cb52bce85e60U, 0xbc818e4fbd19adbfU, 0x3d7b56a1bd064c70U, 0x3e0914d13d8a7673U,
  0x3c13ecafbcbb0872U, 0x3d8b170cbd16d247U, 0xbb3e0b33bd116461U, 0x3c8af7ab3e14abbdU,
  0x3d2c295ebcf57983U, 0x3dded7563e1cfbffU, 0xbbf248443cd6e3eeU, 0x3da664423d4af09bU,
  0x3d31a2803e12dc09U, 0x3dc26778bd86aabdU, 0xbd706700bde482d7U, 0x3e16984c3d9874e6U,
  0x3d0d4d093d05d5f2U, 0x3c76c3973d9dfcd7U, 0x3db00ab03c39e03cU, 0x3d460035bb7596e6U,
  0xbd8040ac3cb2b5f2U, 0x3e2bf21a3ca0cb76U, 0xbc9bf8593c1c1008U, 0x3c8c3202bd7bcb02U,
  0x3bebcec0bdda9148U, 0xbd5fdbd53e0c380bU, 0xbd49daf8bdaf3304U, 0x3d74fb963a108bbeU,
  0x3dbd58803bd6802dU, 0x3dcbda0f3c660f11U, 0x3c442c7abd0fad87U, 0x3d63575cbca54244U,
  0xbc9a59213da625adU, 0xbd9bba7c3ae9b433U, 0x3e1117c6be32789fU, 0x3e23e02ebe2139c6U,
  0x3dfeb1e5bdfe44e4U, 0x3e04d6a4bdff7f2fU, 0x3dc917853d03b50cU, 0xbc8714b2bca7763bU,
  0x3c52ab633dc2e886U, 0x3d067c763dfbe12eU, 0xbc82bac8bdd39585U, 0x3d0faa883d9a0b75U,
  0xbe6b675fbda9ed50U, 0xbdbe88cc3da47d0cU, 0xbd496fa53dfdc40aU, 0xbd4cc5e0be13c067U,
  0xbe1931b5bd1ab174U, 0xbd7039e8bcf60ceaU, 0xbe26505d3d897dc3U, 0x3ca845a33e34727aU,
  0x3d16b5dbbc954d98U, 0xbd3c2e4b3d639d3bU, 0xbcea16963d8302d8U, 0x3db6ce99bddaad24U,
  0xbddad4b7bd7044bcU, 0xbde07a67bd8018beU, 0xbd94c8f0bbd9d72fU, 0x3df1696e3dccd505U,
  0x3de7990e3df96ac0U, 0x3dfa041b3dd7d63aU, 0xbdfab520bb8ff872U, 0x3dbb21babd84957fU,
  0xbd4a8de5be315761U, 0x3e36985b3de07cb0U, 0x3c5cb74c3ce601d0U, 0xbce7d3fc3dd9d1e3U,
  0xbe2d2e9e3db05b88U, 0x3d800d31bc041042U, 0xbc5ebc82be05b867U, 0x3d5d4acb3dedcd90U,
  0x3df3a567bcc77769U, 0xbd71c6183d339e39U, 0xbcf7ec74bd61df10U, 0x3d5596edbd05c0e5U,
  0x3c531fc93c2085d3U, 0xbcd7c5d9bd09262bU, 0x3d84e6b53d745469U, 0xbc768e803dbdc6ccU,
  0xbd8a4ab43c147193U, 0xbd31616b3cf60e8dU, 0xbd4fb602be04857dU, 0xbd5b0b403d5da9e3U,
  0xbca4e799be0ed31cU, 0x3dd340123d6a4335U, 0xbd4e205c3cb0620bU, 0x3dc1a46ebdf404d8U,
  0x3ccc76f3bcafbc1bU, 0x3df252ad3d2a1148U, 0x3bc6953abe18fc18U, 0xbe01aee83dfbf781U,
  0xbcd6dfb43ca9f13bU, 0xbd34ec2ebdbe805aU, 0x3c979b4b3d5e2d61U, 0xbbb71f49bd6a19b1U,
  0x3dc99c22be1def37U, 0x3df3b811be6506beU, 0xbd0753c43e08ca7aU, 0x3cdf3bfebd93d887U,
  0xbdf1bcd33db379c4U, 0x3d72f2cc3dd828b7U, 0xbd3ddcdfbdec3e7eU, 0xbcee4ef43dc0c9e7U,
  0xbe6fc4d3bdfb78ebU, 0xbe18d6fb3e4aa384U, 0xbd9b4c913e330391U, 0xbdf574c7bc0647e8U,
  0xbd7c4f30be14de7fU, 0xbd81aaf5bdcd3245U, 0xbcd9245fbcc9fafdU, 0x3d5738a53e48fe1fU,
  0x3ded06623d181539U, 0xbde974333daa996cU, 0xbda64d533e0566eeU, 0x3d961558be6879e0U,
  0xbc9203e9be1864acU, 0xbd987c393d870372U, 0xbd4982bebdc5ec91U, 0x3e3bab0d3e161dbaU,
  0x3e06d51c3e1e9873U, 0x3d57a0143e1f056fU, 0xbdb48928bdb83298U, 0x3e4de060bccccf54U,
  0xbd4e6c52be12ffeeU, 0x3e160ff43d22e93cU, 0xbdcdb6623d8dd26dU, 0xbb0c9909bd95798aU,
  0x3c0315e1bd550717U, 0xbdd31619be0c52faU, 0xbd569081bcaa2bedU, 0xbd2a79c1bc2e9611U,
  0xbe26bd55ba477d5bU, 0xbdf6f36a3c321c05U, 0x3db17d3d3dfdee49U, 0xbd5701fbba153475U,
  0xbcda34b8bc31ac01U, 0xbc9e4bcdbcac5390U, 0xbd4858233c6ee04dU, 0xbdbef5423d1a6be1U,
  0xbd84506d3c9caf91U, 0x3dc0510d3d2d6cf1U, 0x3e070303bcf0e9cbU, 0x3c8517333c9a0feaU,
  0xbc8bced43c0a7b6aU, 0xbdce4f9ebdb12b9fU, 0x3a53c4153d7993a3U, 0xbde117743d4f9862U,
  0xbdc5b699bd939e7fU, 0xbc4103693e0c83e2U, 0x3d90b07ebbaabb6eU, 0xbb62d818bd11c32dU,
  0x3d15039fbdde0905U, 0xbcf79efb3d826a74U, 0x3d87368bbd42377eU, 0xbd4618c43d8cf039U,
  0x3dca02663d966785U, 0x3e1b31ac3c24ce0eU, 0xbc9f21013e5228d5U, 0xbd8f09643c0265e2U,
  0xbe195ab63e5d854fU, 0xbd28785a3e627025U, 0x3c4cb114be49a176U, 0xbcaca46d3da9cf9dU,
  0xbe143121be3de3cfU, 0xbe3447053e4d37adU, 0xbc74b6d63e15d17fU, 0xbe404c7ebd09d247U,
  0xbc3139b73c862b4fU, 0x3ced36d1bd593b26U, 0xbc4032edbb5d8a68U, 0xbe3438813e1ec744U,
  0x3d820b6fbc1969a8U, 0xbddc06403d9f9c49U, 0xbd5f5e02bbf9e46cU, 0xbc5af05fbd6952b4U,
  0x3d0d0b5abdf203b4U, 0x3c832e25ba7ec958U, 0xbe0186b4bd384b13U, 0x3d7b1e123d2cf4f1U,
  0x3b8234fb3e5032e5U, 0x3e3e3ea83d30d1e7U, 0xbe298924bd090efaU, 0x3d9d160e3b3c2e28U,
  0x3d1619a1be3f841dU, 0x3dff097b3dfd3164U, 0x3d6a0a163d2f3ccbU, 0xbd8ac6debe6c95fcU,
  0x3d59f6213ce672b3U, 0xbd92fbcebda10357U, 0xbd48d9c8bd3291ceU, 0xbde837a63c68c4e4U,
